/**
  ******************************************************************************
  * @file    audio_classifier_data_params.c
  * @author  AST Embedded Analytics Research Platform
  * @date    Fri Aug  9 11:16:28 2024
  * @brief   AI Tool Automatic Code Generator for Embedded NN computing
  ******************************************************************************
  * Copyright (c) 2024 STMicroelectronics.
  * All rights reserved.
  *
  * This software is licensed under terms that can be found in the LICENSE file
  * in the root directory of this software component.
  * If no LICENSE file comes with this software, it is provided AS-IS.
  ******************************************************************************
  */

#include "audio_classifier_data_params.h"


/**  Activations Section  ****************************************************/
ai_handle g_audio_classifier_activations_table[1 + 2] = {
  AI_HANDLE_PTR(AI_MAGIC_MARKER),
  AI_HANDLE_PTR(NULL),
  AI_HANDLE_PTR(AI_MAGIC_MARKER),
};




/**  Weights Section  ********************************************************/
AI_ALIGNED(32)
const ai_u64 s_audio_classifier_weights_array_u64[4934] = {
  0xbb16399bbb6894b2U, 0xbbb90e84b8a0e6f5U, 0xbb205843ba8caf2bU, 0x3a8bef1d3b93320dU,
  0xbb70e50fbb611e1aU, 0x3abb4b1ebbc3b0cfU, 0x3b94b253bb332040U, 0x3ba185b73b56365aU,
  0xbb189567bc071a66U, 0xba8a97d43ab3c02aU, 0x3b9b1e973bec60fcU, 0x3a035931bb3de892U,
  0xbb53dcbcbbaa0e5fU, 0x3b7d0e5ab9e1cfd7U, 0x3ba8115a3b69663bU, 0x3b910048ba2551f8U,
  0xbb3355ff3b7be310U, 0x3bd5abb33bf9f580U, 0x3ad6b532ba84d5a3U, 0x3ba25eadbaf2d9dbU,
  0x3acb474d3b42ff2dU, 0xbb4da4453bdf3638U, 0x3b371afe3ae7ef77U, 0x3b7c5201bb0ca996U,
  0x3b902aac3c1ce051U, 0xba6f5a243b98cf2cU, 0x3a4f2c28bbb68cf2U, 0x3b8e794abbc8327dU,
  0x38e1a4693c51b59fU, 0xbb58b8213b66bfa4U, 0xba65bb51bbd6428dU, 0x3c09c63b3b1cd046U,
  0x3bb8700d3c3cde0eU, 0xbbc7c21c3bbcbbbdU, 0x3b27a10fbb6d29a8U, 0x391eb56cbb5c882aU,
  0x3b01ed243ab4c272U, 0x3ab63ed5bb1dd9a9U, 0xbb8b78c5baeec638U, 0xbb5dfad43b5c28cfU,
  0x3b1becce3bf94e29U, 0xba4db5f3bc30ac32U, 0x3aa2df843af66d89U, 0xbb9eed29bb680d14U,
  0xbb101d963bf2d68cU, 0x3b0c7a11bbdbe009U, 0xbaf9b1f33bb15b94U, 0xbbb21b14ba9f451bU,
  0x3b7a69883bca4730U, 0x3ba892903bbe0b71U, 0xbb616ff1ba1b3cbcU, 0x3aac6a3ebb4ac4c4U,
  0x3b9f8f9e3c151f3bU, 0x3a6490523b971383U, 0xbb9054c7bbae8255U, 0x3b0fff31bc15f949U,
  0x3c42e9df3c39e058U, 0xbb65788ebb111ca5U, 0xbbcfb53fbba4411dU, 0xbb054b4fbb92ae51U,
  0x3b6ea0893ca51efbU, 0xbc40f590bc2998a1U, 0xbc23f9edb6d024feU, 0xbb82221a3b132514U,
  0xbc448c32bc3e7c4bU, 0x3b3a9754ba9c4702U, 0x3b08a1d43bcc741dU, 0x3c3711923c17a9ffU,
  0xbb04a9353b084cf4U, 0xbabdb7a4ba7699f4U, 0x3b80f7f93b12c8f2U, 0x3bdaa2b73c1c4024U,
  0xbb2456f3bbb7feb5U, 0x3aa22d4dbac7cf54U, 0x3a2bc5c8384cc6cdU, 0x3bef94e93c2edcc2U,
  0xbba93f2dbbd7d29aU, 0xba08ccaebb75d289U, 0x3af2fd9a3b7e66a7U, 0x3b96a6493b870bbbU,
  0xbb4a2c89bc297d32U, 0xbbbea5b9bc0a2ac5U, 0x3a8bbb84bbb36f39U, 0xba4721e03ac31c0eU,
  0x3840a7c5bad01142U, 0xbb41ae5bbba0c905U, 0xbb56cd393a4576d1U, 0x3b3471f1ba07abe7U,
  0xbb0cded1bb34794cU, 0xba076b733afbeda0U, 0xbb594d213aba8fdcU, 0x3c29299bbae01df7U,
  0x3af2b6acbb9e55ecU, 0xbacfaacabb25f31dU, 0xbb3869b8bb709526U, 0x3b739c273bc17bcbU,
  0xbb0d0e0f3b90c5a8U, 0xbb0be53cbba95384U, 0xbbfa746ebc170ec8U, 0xbb7a271dbbb13e9cU,
  0x3bd2a846baedbb23U, 0xbbb579a1bbb02ca4U, 0xbb9a75a9bbfe98caU, 0xba8ff41bbb888061U,
  0x3b168a4bbb64d88eU, 0xbbd6ae58bb9b18f9U, 0xba06448bbc073d55U, 0x3ae6482b3b9b7987U,
  0xbb11e18cbbde5ca4U, 0xbb7a6e72baa5d339U, 0x3ace3ba63b6a7cd1U, 0x3b2e67363c284aacU,
  0xbb92fd3abb75af0fU, 0x3b198aebbb9690c0U, 0x3c3d4b6cb7747c47U, 0x3ba5884e3b928a84U,
  0xbbdb41c3bb2075fbU, 0x3ac90f8a3bbc528cU, 0x3c244c603b0010d9U, 0x3bf70efb3b21a8dfU,
  0x3a23edddbaed302eU, 0x3bc71a673bd71231U, 0x3ba7205b3bf13ef2U, 0xbb44eea93bc6016aU,
  0xb9b4dd463acdf7f6U, 0x3bc10f123be54160U, 0x3ba65d5cbb077177U, 0xbc3dcd29ba269342U,
  0xbb407459bc30c890U, 0x3ae76366bb1c94ccU, 0x3a0114c6bba2644aU, 0x3c03c6cc3b11b4b0U,
  0x3b5373b7bb9f26adU, 0xb9b65fc0bb9b5c6bU, 0x3b636b393bda8fb9U, 0x3c3499b63bf0babbU,
  0xbc036afdbbdddaf7U, 0xb90c0decbbafa287U, 0x3b91d7733a9a19d2U, 0x3c326bd23bc74971U,
  0xbc00059d3b7573d1U, 0x395b46babbe446e7U, 0x3b1e37313acdd24cU, 0x3c056da33a54eb3dU,
  0xbb9566fdbb9a8bb7U, 0xbb22f11abb9c5882U, 0xba93448cbaa281aeU, 0x3bab68583b925d06U,
  0x3b415b9dbba6fc4aU, 0xbbc803a3bb5638f1U, 0x3abdec6a3a2841a1U, 0x3b8552a13b0f59eaU,
  0xbb4b2306bbc83675U, 0xba22787abb44600eU, 0x3b464331bbefb61eU, 0x3c57e60c398b0d1aU,
  0xbc091eabbae8c03dU, 0x3a3fcbb3bb84ef85U, 0x3b302ec5bb869292U, 0x3c11efab3bdbae06U,
  0xbb173a9c3b72f361U, 0xbb2b87bbba0e6905U, 0xbc0d1918bb9ee45fU, 0xbb87a68fba0bfa04U,
  0xbb23c5ff3b73e58bU, 0xbbb60e17ba40629eU, 0xbbd396cbbb49a472U, 0x3bcd49e03c0fe57aU,
  0xba684a19bb0316b7U, 0xbb3da52bbbbf5913U, 0x3b92eab9395c16d6U, 0x3c42a0fa3b364072U,
  0xbb1c4dacbb6a75f4U, 0xbb8791e9bc0fb86bU, 0x3baba75eb9cc22a3U, 0x3bf025d13c3b38c0U,
  0xbba14982bbb87f55U, 0xbb68b7d3bc0a7a76U, 0x3c1b6abe3b965b8bU, 0x3aedf6ac3aca1165U,
  0xbb89e8603b17deedU, 0x3b164909bb8f1da2U, 0x3c19df5b3c352c94U, 0xbb91f85bba23f66cU,
  0xbbc720e4b907c712U, 0x3bdacdb4b7246a21U, 0x3b9a28d13c537186U, 0xbc10d1e6bc1207aeU,
  0xbb6090333b6f8558U, 0x3c43e8cd3b48c84dU, 0x3b562d703c3b1031U, 0xbc99a98bbc41ed04U,
  0x3bc7569e3b376958U, 0x3b4276353b599d82U, 0xbbde992fbbd8787fU, 0xbc638ac9bc55f223U,
  0x3acc7dcdba8fe7d9U, 0x3bd2d685ba816190U, 0xbc255580bbb0f7daU, 0xbbd19a00bb8938abU,
  0xbad0ea3cbbb2a78dU, 0x3b138fbd3b1a7c22U, 0x3a246237bb864838U, 0x3a827580ba2ae819U,
  0x3a85f956bb6e35feU, 0xbafda0a43b83f530U, 0x3a2ac8adbbb5ebafU, 0x3badb90f3907d9f8U,
  0x39fd53a1bbe28568U, 0xbbb71d38b98cfe7bU, 0x395b339abb7c711cU, 0x3c6998bc3c2aa3abU,
  0x3a68b9d4bb9d7fa3U, 0xbb593de7bbc23903U, 0x3b7da193bc0739daU, 0x3c65d5b43c43eb2fU,
  0xbad143fabc034417U, 0x39a6f2f73c032f40U, 0x3bb352c0bb1bfe1bU, 0x3bcc28513be7902fU,
  0x3b6285b3ba6ca911U, 0x3b870bab3b2bc332U, 0x3c1e3b8cbb7428edU, 0x3c19b2973c7ab9b1U,
  0xbb4c301dbb197308U, 0xbb5be311bc072a31U, 0x3bb539a33b07d5d8U, 0x3b9f781e3c0fef76U,
  0xbba24082bb86a7d7U, 0xbb23ea6439f4bd6cU, 0x3bb0b8a4b983ed5dU, 0x3a91a52a3bbb9418U,
  0xbb4d736bbbe7f46eU, 0xbb3226a7bbd8213bU, 0x3bbd44debb599b10U, 0x3b1fa4323c2e288bU,
  0x398ac2aeba827e14U, 0xbb799e85bbd4fff7U, 0x3b000d86b98f2bddU, 0x3b369b183c33d230U,
  0x39b346ccbb05bf7eU, 0xbae6ec72bb0342a5U, 0xbb0231ffba9819b5U, 0x3c0aa3b43c401477U,
  0x3b06b07d3b64649aU, 0xbc06fd10bbc4e780U, 0x3b89eddebba9bbd8U, 0x3bf3a4cf3c569c04U,
  0x3b5d32d3bb36778eU, 0xbb993128bb1dba52U, 0x3b3ae8b13b38faa1U, 0x3c0c96b23b855855U,
  0x3b1d8de63bcf1244U, 0xbbe3f1613b1ce7deU, 0x3a4d2552bbc32fabU, 0x3bb069b83c256a97U,
  0xbde83eed3fc80474U, 0xbee6e536bed111feU, 0xbe9f653e3c575aa0U, 0x3fdbb7d83eaabb83U,
  0xbcd708ba3db3c2b0U, 0x3db3a2bc3e871e8dU, 0x3d97287a3e198b0cU, 0xbe1b8ea73dbe4100U,
  0x3dd6a509be419904U, 0x3d155f673d8d7580U, 0x3e1389dfbdad48d0U, 0x3db85f063ca99b02U,
  0x3e9f0837be5f9983U, 0xbdaaa2d2bdc6d13bU, 0xbe4eebc6bbe12640U, 0xbe452ab4be01633dU,
  0x3e018ec0be7af067U, 0xbd9cdba0bd59b7e0U, 0x3d2a51eebe930a7dU, 0xbdd2794cbe29dcaaU,
  0x3d61f44bbdfff85dU, 0xbd14ed61bee29c08U, 0xbe3b4a14bf0c5ccaU, 0xbd3964613da3b868U,
  0xbd7eaa3bbded90f4U, 0x3da8547b3d3781efU, 0x3e1e10063bfe3c24U, 0xbf0fcca6bdd28c06U,
  0x3d9b5c54be8a6794U, 0xbe0ba43dbd059491U, 0xbd8cb3813c85d35cU, 0xbd9b491b3e0960c4U,
  0x3d25e072bdfc46a7U, 0x3d5f39f73e6cf421U, 0x3df0b12fbce94f7cU, 0x3da0bf493d95bb6cU,
  0x3e0099febdf33599U, 0x3d2a7d8d3c29c310U, 0xbdfdc966bd034f7dU, 0xbe75b4e6bd9297e1U,
  0xbb229a22bdd076dfU, 0xbc95a300be6153a0U, 0xbcf9b4b3bd8383d0U, 0xbe32cf06be1b373eU,
  0x3e07f2acbe4a602bU, 0xbd60262cbe6cf7aaU, 0x3e1b8c903dc677e6U, 0x3dbf999a3d500c93U,
  0xbd2c4155bd1235e3U, 0x3df1d3623dc3673eU, 0x3e25f8ef3da47249U, 0xbe91fd75be3332c9U,
  0xbcbe4c2dbe439cdfU, 0xbd9744bf3d8dc9a0U, 0xbdf24ec13e2074daU, 0xbde02fd5be3bcecaU,
  0xbe3c2514bd9c80daU, 0x3d27d9f2bb31a57cU, 0xbdcb21933dbc7cd3U, 0x3dd5c605bd8b9749U,
  0x3d754aafbe23cb97U, 0x3ce3a4293d62254bU, 0x3c7fab0ebd27240bU, 0xbda15f9bbe081eb3U,
  0x3ce3e2d4be188c22U, 0x3d764c23be9bc5efU, 0xbe0580f1bc5a5e41U, 0xbddd873ebe3780d0U,
  0x3db56229bdef91a8U, 0x3dc919713b498afdU, 0x3ddc52133d8d9d5aU, 0x3c05785abaee3542U,
  0xbd5023bdbb813bcfU, 0x3d8a673b3be9f442U, 0x3cb522e43d3b02a0U, 0xbe90f4a2be5b45f8U,
  0xbc30410fbe41b046U, 0x3cc987e53e8b7d39U, 0x3dd1762b3e0aa551U, 0xbda427ae3bb71136U,
  0xbe378d0fbd869004U, 0x3e1e84803c8220eaU, 0x3e3b550a3c05f8e3U, 0x3d5523a3ba8cf2bdU,
  0xbe2f6eb8bdb186b3U, 0x3d53b5f83df98f5fU, 0x3d1ec9a1bdd27838U, 0xbda0db51bdd7d2a9U,
  0x3dda0e84bd995db4U, 0xbdc57affbe85bf36U, 0xbd972850be1e21c3U, 0xbd7674aabe04661dU,
  0xbdafee56bdc48a7bU, 0x3cb8a2a33cbcf65eU, 0x3d6619a83d942f18U, 0x3e10bb8d3da27f71U,
  0xbe021ce9bdda1467U, 0x3d68f82c3d3c9203U, 0x3de78cf5bd1761f6U, 0xbe806a72be5becd0U,
  0xbc5c8942bd056589U, 0xb9f638183dd71c59U, 0x3e09d50938ceffd4U, 0xbd12ce44bd1936f6U,
  0xbdb6f59abd1a6a41U, 0x3e05d9afbce18e86U, 0x3dc285f33d8517b7U, 0x3dae98413d7ad12eU,
  0xbe1684653d6bdde5U, 0xbe033ed33d99e6f5U, 0xbe2d4e423dd78f73U, 0xbcf5ea98bd76ff5fU,
  0xbdf40c9c3d216eeaU, 0xbe08a53dbe4d3c02U, 0x39d5b007be3ecdb0U, 0xbe78ed4abd7f63deU,
  0xbdcc57ea3d4327dfU, 0x3e0d26c3bd34533bU, 0x3de95fe13b12c89cU, 0x3e2a95f13e7beba5U,
  0x3d4acbf83ce71970U, 0x3d0a2a813d5e5738U, 0x3b07e98abb0f3a23U, 0xbe4ad174bd690fa9U,
  0x3d0b5a23bda808cdU, 0xbe32b0353c7abffaU, 0xbe0d29773d7ec6aeU, 0x3b87491fbd7f2ff9U,
  0xbe2e5829bd1a90d3U, 0xbd4c63c63d193455U, 0x3e1fc751bdaaf03bU, 0x3c8868b63c787e69U,
  0xbde413373ddb7b6cU, 0xbe6830523d94472cU, 0xbe6f58bbbbb90eccU, 0xbe60c30ebe41e666U,
  0x3c82f87f3d70cb99U, 0xbea1ee05beb4a73bU, 0xbe20ecc3bea96551U, 0xbe5831f7be8d9440U,
  0x3cdda6e03d6929cfU, 0xbe1c57bdbe048ad3U, 0x3cbffcf93d28ef17U, 0x3e05b2f03e39e9e5U,
  0x3da97441be22fd30U, 0xbd0ea41f3d7b6afaU, 0xbd3b5bffbda4d925U, 0xbde5f89dbe152040U,
  0x3ddd1d7abd5cc756U, 0xbe24e2493e1bfdc5U, 0xbd9dc5853d02cdb3U, 0xbdf0bb7fbdf833a7U,
  0x3d6c52c7be6263a1U, 0xbe00a1b5bc65a74fU, 0x3daf08283bc9babcU, 0xbd2f0489bd67d075U,
  0x3d827cedbe40abf4U, 0x3d89bb42bb462da4U, 0x3aa67d9e3d203e49U, 0x3afa46e8be25d1a1U,
  0xbdd1bf22bdebcbd8U, 0xbc7a83a4bd7a9153U, 0x3a9d0ee6be5da790U, 0xbdb5cc983d0abfc2U,
  0x3cb28328bcc6f1bcU, 0xbd6c76e8becd330bU, 0xbe6bdfc5beeca192U, 0xbdbad8b83d159fccU,
  0xbd0bd98fbcf9719cU, 0x3e2ecd1a3c26259fU, 0x3e20d79ebd03de30U, 0xbd6385fd3cb1e55eU,
  0x3d9d04a63ca1a55dU, 0xbde1d973be0b08c5U, 0xbda4fdd23e3087d7U, 0xbd4ebfa83d1b0689U,
  0xbaca72f8bd320f99U, 0x3deb36673c200eeaU, 0x3e0669d5bd15f7e5U, 0xbe0900673e1c17c1U,
  0x3e5cad4ebd7a2bc0U, 0x3d007e203d7fa607U, 0xbd680637bdb86dbaU, 0x3cab8c31bb8db38cU,
  0xbddfafd73d7e7563U, 0xbe1cafd63cfc1b42U, 0xbde04267bdb7d1daU, 0x3dc54d85bc07ce35U,
  0x3d38adb8bd0dded4U, 0x3dc5a30ebe8358d2U, 0x3dde9af73d4549a0U, 0xbd855046bd03028eU,
  0xbd819986bd482b75U, 0xbcb731273c886fa0U, 0x3de4fe5e3e027ed0U, 0x3d6519debd861032U,
  0x3c3e176f3d07d75fU, 0x3df4cf23bd35aa7aU, 0x3d6ee2243d904b06U, 0xbdb6cf433e3b1bf6U,
  0xbe2295aebdc66ff1U, 0x3def547dbe10197cU, 0x3dfcbb673c9d307eU, 0x3d56b863bc5dc244U,
  0xbc4764eabdf0aa67U, 0x3d2508b9bc701b22U, 0xbe02fd8bbde49391U, 0x3d308b9abd553c7dU,
  0xbb85109bbc31c0f5U, 0xbd9e4418bdb6761eU, 0xbd9b6fd6be042983U, 0xbdfdf88ebd8b810cU,
  0xbc7adf53bdbbd329U, 0xbde3c200bd54aed2U, 0x3e0244d5bc61bd19U, 0xbdc36ff4be266332U,
  0xbdcebacb3cda3a93U, 0xbcf563433dafeafbU, 0x3ac5f24a3db72f77U, 0x3cd60ec1bc5b5defU,
  0x3e06e52f3e06ac40U, 0x3dd4afd8be32707cU, 0xbda84272be8b1caeU, 0x3d3fc50abd0d2a0bU,
  0xbdb3eb10be24f283U, 0x3e5a2fd6be3e4c1cU, 0x3d93c0413c8fad15U, 0xbdb571f23d9b622eU,
  0x3de93bd2bd9b0a35U, 0xbd20a9edbdb4b2f7U, 0xbe3afe3bbe2c441dU, 0x3d45ffadbdc45aeeU,
  0xbd7c45b83bbe9469U, 0xbe2fb9b8bde53263U, 0xbda15997bdd8bfcaU, 0x3c975f85bd814a6fU,
  0x3dd8ede13d21a515U, 0xbc58814fbc81489cU, 0xbe0bc025bd32914dU, 0xbb87c07ebda19519U,
  0xbd8cc1e13b795ef4U, 0xbd68bfe93a0f8e49U, 0xbd16b9763e019807U, 0x3d185194be3686e5U,
  0x3b7897563e008dc5U, 0x3d0aac6bbd9f14d8U, 0xbdc8f4e8be60b103U, 0x3d46f776bdbdd201U,
  0xbe07aac03cf852b4U, 0x3d236dc9bd203ce4U, 0x3cffacb1bdfc5a53U, 0xbe06416c3d7d6ef6U,
  0x3c402b5fbb02cb7eU, 0xbda474183d40fae8U, 0xbe59e03fbc7747d3U, 0xbd04d007be11771eU,
  0xbe260974bd2b82c1U, 0xbda70ed9bd50402dU, 0xbc99549d3d362d02U, 0xbdd57773bd2205dfU,
  0x3c72b94ebdb6ee34U, 0xbaa577d5bda79dc4U, 0xbde22135be29906eU, 0xbe3a2b58be1f7009U,
  0xbdafec60be3cd426U, 0xbd436a183e172c43U, 0x3cafad0f3dded5d9U, 0xbcab67e0bda22b0aU,
  0x3d80cd3b3d2a4d0aU, 0xbcb6a22c3d8282c0U, 0xbda22074bdc04fcdU, 0xbe351b2e3e4907b1U,
  0xbd9fd3993ddf4901U, 0x3ccf56bd3ddf8efcU, 0xbc8119663d032888U, 0xbcdd5ddcbd2b6448U,
  0x3e6ed4b53df2f711U, 0xbdfc34c7be017d8cU, 0xbdc943bfbd1d90ecU, 0xbe040773bd65781bU,
  0xbe6bbd0abdd61506U, 0xbd011ac3bdb9d1e8U, 0x3d8468d83c68a2cfU, 0x3e075dc6bded61b7U,
  0xbcaca360bd1004e7U, 0xbd71d347bc6439feU, 0x3da93f383c0b1cceU, 0xbe54431c3cca924cU,
  0xbdfb1159be2e4415U, 0xbdb02b863dac0996U, 0x3da6fc6c3db134a1U, 0x3d67a9b4be5ca648U,
  0x3cdff69dbdd7c53cU, 0xbd8655843dcf90b0U, 0xbd3f0de63db7f660U, 0xbd05f140bbc16cd9U,
  0xbced2eebbe24bb72U, 0x3d318bf33e1efb08U, 0xbc8202b63e2bf27aU, 0x3bfdb0993d9b3d21U,
  0xbe5518debd8d1f4dU, 0xbd7500643dcdf6d0U, 0x3d6f05ce3e39dcd2U, 0x3da821af3b8d73e9U,
  0xbd02b5c43c13230eU, 0x3db70843be6e080eU, 0x3d57d7b0bcbd6380U, 0xbd0f767f3dbecfa5U,
  0x3e3eb2523db3c189U, 0xbbe899f23ca9bda4U, 0x3d4b2b08be9fef87U, 0xbd56b2003cde43a1U,
  0x3dc3ed63bdc37f7cU, 0xbd82d8753bc105d2U, 0xbda2a07e3dbb811cU, 0xbbae524bbe825b98U,
  0xbd9c89073c59e6d8U, 0xbd1e3a4b3d9b1fa9U, 0xbde944723e7bf242U, 0x3da755353d4bd1b8U,
  0xbdf701fdbb052e8aU, 0xbd11291e3e911c4eU, 0x3d22e5bb3e16a982U, 0x3a884f1ebbd2d041U,
  0xbea65652bd8501b1U, 0x3e03231a3e6a0153U, 0x3ce9383b3e1e32d3U, 0x3d747c2a3d1defe4U,
  0xbd54c8a13d76cc27U, 0x3dda8111be194216U, 0x3e109c2d3d4d9592U, 0x3d60821d3e0aa3c9U,
  0x3d8ecb523da79e02U, 0x3e193cb2be65e3beU, 0x3e05f878be8b44a3U, 0x3cff41563d88c161U,
  0x3d851828bda416d4U, 0x3ce80d07bca00026U, 0x3d2ab10f3db88f87U, 0x3bb9a78ebd93249aU,
  0x3ccf69b5bcc26b68U, 0x3da5e1053e52e1f7U, 0x3dcba85fbd9f01ceU, 0xbd48db57bdf36a05U,
  0xbd1bab613c615841U, 0xbd562c803edbbb8eU, 0xbe027ce53df222e8U, 0x3e2e796dbd1713d1U,
  0xbe80348cbdf702c3U, 0x3dbac90c3e5d60b5U, 0xbdb32f443df9d0f9U, 0xbb7ced163dadaaf3U,
  0xbdc87309bd214b21U, 0x3e3082273dab9782U, 0x3e4be3cc3d63c990U, 0x3d981b683dbeb297U,
  0x3d976a0b3da43526U, 0x3d87310abcced15bU, 0x3e8525343dfeb6e5U, 0x3dde64ec3e3c09f5U,
  0xbc395e5fbc5f1658U, 0x3e5bc78d3e01eacfU, 0x3df073f63e090b6cU, 0xbb54ffef3de88eadU,
  0x3cb0f3d93da9ffd6U, 0x3b160c5f3dfbf33bU, 0xbc0a5a4d3e18e55aU, 0xbd88b9a73df9d891U,
  0xbdb4f005bd2b26a0U, 0x3c7c8f693e052761U, 0xbc7bb63e3e6320a3U, 0x3e15ee083d5b865dU,
  0xbe913e143e0b464fU, 0xbc8df1d53e79fdd7U, 0xbd2fea0d3e4f593bU, 0x3d995a523e0b5f1bU,
  0x3cd399b33ce5cc6bU, 0x3e13267c3d02e51cU, 0x3e3ae0d93c5a9255U, 0xbbb5e10a3d9a4166U,
  0xbcf338403ddfeb27U, 0xbc855aa93d8c67d4U, 0xbd0f8ad73d51c523U, 0x3d6816553d43765aU,
  0x3d99a7d23db7097cU, 0xbc1316743dbdd808U, 0xbd6e93213dbd83e7U, 0xbe165f883dfdfd46U,
  0x3da6c35dbd7e89e2U, 0x3d7f54403e81bc3aU, 0x3d85af4a3eaf89c1U, 0xbd25d2b0bdb7ecb5U,
  0xbe26ae003d65bb54U, 0xbcd50fa83e210702U, 0xbd9d7c2a3e9a9beeU, 0x3c88ed38bd9c3eb7U,
  0xbe44597a3c8bd125U, 0xbdaf77663e04f83cU, 0x3c02ab4f3dfdd31fU, 0xbcf3b2a03d91e65cU,
  0xbdfda880bd15088cU, 0xbdbc0a8bbd2fb4ecU, 0x3b2606373d427ad4U, 0x3d4ff908be90b44eU,
  0xbd54a869bd112f81U, 0xbe7384b13da0e2ebU, 0x3d3678483dda93f0U, 0xbbbc4a4dbdc4c210U,
  0x3da4665b3d63c559U, 0x3bc50c163d3ea427U, 0x3ca879523cf2da42U, 0xbdfe80583e881381U,
  0xbb0d2f28be96c353U, 0xbe102367bd2e7acbU, 0xbdefa33f3e3b48c7U, 0xbdafd8aebe87431eU,
  0xbe598476be87d2d5U, 0xbe4d49273e324738U, 0xbe328d313eac9f03U, 0xbe150a88be8452f1U,
  0xbdee3cffbe7e0af0U, 0xbe4091443d3b504eU, 0xbd7e7d3f3e6e689cU, 0xbdff1105be10d2fcU,
  0xbc25857abe08546bU, 0xbe283dafbdca60f3U, 0xbd2f32bbbdcdff0cU, 0xbe26f0eabd98eb78U,
  0x3d78ab96bd514622U, 0xbd24285b3d9a1aa5U, 0x3d0fcc243d040267U, 0x3e19d3563e38a08dU,
  0xbdcb73a43e894556U, 0x3e83939a3e30414aU, 0x3e56cf0d3e964e04U, 0xbd28f2db3f002769U,
  0x3d044b8bbd9f5369U, 0x3d8b81c83e0b00e6U, 0xbb45cded3df3a5a1U, 0xbdee42ff3cf6e0fdU,
  0xbcceceb1bcd83a66U, 0xbdabbfce3e9cc9edU, 0xbde17ee13e76eca8U, 0x3c90b7ba3d0f8bf2U,
  0x3e093cfebd81a243U, 0x3d931a303e3922d9U, 0x3dd9dc883e1f358dU, 0x3bea2a6d3cb6a035U,
  0x3e4d5315badea545U, 0x3d37ebf13d7de934U, 0x3e0732c1be446578U, 0xbd8a6a29bdca7074U,
  0x3d9cffcc3cd50468U, 0xbace72103d3210b1U, 0x3bae56b5bdce6b0aU, 0xbd810845bd814b0aU,
  0x3e3d43edbe2c5e78U, 0x3d0851f53d5558bfU, 0xbd0bfeee3c8697f1U, 0xbe5c3941be62c26aU,
  0x3e01734abb6c5c06U, 0x3e4448ac3e44879aU, 0xbe1001693e4a9859U, 0xbd509232bc7bced7U,
  0xbe0d5b7bbcd6804dU, 0x3e1359363e2ea7beU, 0xbe03d7883ea35864U, 0x3d23ea723dd95154U,
  0xbda80b823e07a55fU, 0x3ddf2c733cbd2030U, 0x3e3135e93da8d337U, 0x3e2b953e3e308beeU,
  0x3e41134b3d1f0338U, 0xbd150be0bdafd186U, 0x3e452236bde7070eU, 0x3d9247b33e27eda2U,
  0x3d0640473d3acbacU, 0x3c89c0ccbd761e67U, 0x3d6417b8be341167U, 0xbd9c3d493d4d874bU,
  0x3e3c0e05be199119U, 0x3e21bdeebb8ce600U, 0x3d717a7d3d8431c2U, 0xbcd4a524bd3ea9b4U,
  0x3d54cab9be36da6bU, 0x3d7d487abd65d00eU, 0x3cf2b0523e1b7631U, 0xbdda356f3d6030a6U,
  0xbe726a27bdbaf988U, 0x3ddcc9403e254c5bU, 0x3d8111f33e42660fU, 0x3c4208353e26c8c3U,
  0xbdbf09fcbd9183ccU, 0x3dd2b6f03e44de04U, 0x3e519a213d9c33b7U, 0x3d42c309bda0695fU,
  0x3d61e5f33db41ca3U, 0xbcaae968bdefc57fU, 0x3e4199febd25877cU, 0x3e323feabd150bd2U,
  0xbc2950263e171340U, 0x3e370e1ebe77fb26U, 0x3e1d9ad53d320669U, 0x3e3be9273e22e96eU,
  0x3e38f4093e229d01U, 0x3d9a613a3e587576U, 0x3d39e92f3cfee062U, 0xbbae68a3bd22d9dfU,
  0x3d6c3e2cbd072146U, 0xbda940543e4b7025U, 0x3de203293d468287U, 0x3b6a77c2bc82d982U,
  0xbd7096aebdbe3ebeU, 0xbdc9c6123e83471fU, 0xbc4999953ddfe360U, 0xbd2f0a343ded5e12U,
  0xbdf9fdb9bd87bfdfU, 0xbde18e563dc339e6U, 0x3c50318b3e74dfbaU, 0xbd2bfe143c9b7d6cU,
  0xbd8f226cbd9f6f99U, 0x3ced79a23d0f9bd1U, 0x3e1d4cd93c586177U, 0xbb33f40d3dbb846eU,
  0x3bd6be033df102a5U, 0xbc5d53d2bdb42e9eU, 0x3e380e233bfcb760U, 0x3e1a6b643e5eed29U,
  0x3dee4ab5bc252b9eU, 0x3e077e3ebc4cca6fU, 0x3e33274dbd810593U, 0xbe18cfde3d916bdcU,
  0x3bb7adf5bdb50086U, 0xbccd90d8bd223ee2U, 0xbe239e733ea9364cU, 0xba11bf45bdab8dbcU,
  0xbe2f1cbd3e117885U, 0x3d69ca1d3d01c862U, 0x3d1d82aa3d514125U, 0x3e006971bde5bb5cU,
  0xbe90675fbc5006f2U, 0x3dd98eb63e3d0f3dU, 0x3e0f7e723df3329aU, 0xbd9c16733d0e64bdU,
  0xbceccd6c3da4026aU, 0x3da277993d47949eU, 0x3cdbecce3b3716c1U, 0xbce9f9a33d6d3f11U,
  0x3e1a85e9bd9a06fcU, 0x3dd7402a3cfe0abcU, 0x3c331ef33e26e270U, 0x3e44392d3e198332U,
  0xbae7065cb9f6143fU, 0x3e15e3acbc08e0e0U, 0x3de391fe3d287835U, 0xbdf175873da0e62cU,
  0x3d39a310be324424U, 0xba5795af3e3ddc68U, 0xbe28440f3d9f4692U, 0x3ce5cdf23bcf7942U,
  0xbd7ff660bdffb545U, 0x3d9c9b7f3e56e830U, 0xbdbe07e13e98e6acU, 0x3dade44e3db20ed1U,
  0xbdc6b7af3dc5cb80U, 0x3e1545b23d26b40aU, 0x3e3926083e2e2327U, 0x3e155b323cc83cc9U,
  0x3cca1e0c3e05d512U, 0x3da2c969be1cdc65U, 0x3e616a6339439d30U, 0xbd39619ebcfcd0e4U,
  0xbd48e9033dfcf1eeU, 0xbd9d6aa9bd991735U, 0x3e066de6bde7827cU, 0x3c5a009c3d9800cfU,
  0x3d55fab6bd97a4d3U, 0x3dcd1095bd5cd700U, 0x3d7157e83cbb002dU, 0x3d7087783e2fc3a1U,
  0xbdc5495bbe15d363U, 0xbdb63f7dbd3f7539U, 0xbd804b1ebe6193f9U, 0xbaad7bdbbdd7d8b5U,
  0xbf0ac723be40c3c4U, 0xbd70ad423e0e5adbU, 0xbe74212b3cf27210U, 0xbdc1579abe5a422cU,
  0xbe781732be4a2d0bU, 0xbe90a3ac3de6ac93U, 0xbe83b9d3bd37af4aU, 0xbd0e0994bdc21932U,
  0xbe17e4ffbe1cc427U, 0xbe0ffdedbe8aad14U, 0xbe7099b1bea73bacU, 0xbe90b773bd932145U,
  0xbe1355433daaf1faU, 0xbe08e7b93e689c70U, 0xbd84193f3e4703f6U, 0x3cf7d22c3df3ec16U,
  0xbed4e6943d7f729cU, 0xbc2802e13e078546U, 0xbd1c4b2b3e3c8b2dU, 0x3c900306bdecf020U,
  0xbd64c33ebcfc93e4U, 0xbb999e8fbcec50daU, 0x3de9470bbcdc34dbU, 0x3dd810a6bda56227U,
  0xbe122698bd853d84U, 0x3d90d257bbb795d5U, 0xbd9b22723b131171U, 0xbdfdd750bd1e78f6U,
  0xbe176ea23bf787bcU, 0x3d0d6ab5bd55736aU, 0xbe6685d3bd411294U, 0xbbfac431bd06d0f5U,
  0xbdc807cfbde1fc78U, 0x3cf1b37bbd900d2aU, 0x3c58d282bdd336f1U, 0xbd87ba7d3cee5a68U,
  0x3dc534823e2cc704U, 0x3e9d2477bd0ecf81U, 0xbc73505bbe2aef6eU, 0xbd90c7473c9cd9f5U,
  0xbcf81f073da60ed8U, 0xbc0ce34c3c9646d3U, 0xbdc850383d0f2713U, 0xbddc01c0bda5a31eU,
  0x3df1c03e3dd9e584U, 0x3de31cc33dd92767U, 0xbdc77ad5be3c4468U, 0xbd385f593df11433U,
  0xbcf3dd4c3cee0f68U, 0x3deb2efa3e95d0adU, 0xbd045c203e680c1aU, 0xbd9c5c323c8a1a34U,
  0xbe78ba003c41a5bfU, 0x3e252b803d8c4b17U, 0x3ddfff13bcc4e1f7U, 0xb8649a503caf611eU,
  0xbcc5af253cbe44fdU, 0x3d8b0ac33db3e422U, 0x3d51a4913c2b7c9dU, 0x3de4f1ffbc42c710U,
  0x3d7a8ee03d9ce41cU, 0xbc3a41e2be93e322U, 0x3c9eebb8be12ebccU, 0xbd409011bdd2da38U,
  0xbd8830083cf572a6U, 0x3e227a67bd5e924dU, 0x3c2fc4d13d9d2fe4U, 0xbe8300cbbdeffc7eU,
  0x3e14dab2bde72af6U, 0xbc154ca63d43f08bU, 0xbca196d83e9de2d3U, 0xbe0b4c71bcde7930U,
  0xbcdb4df1bc2d5c62U, 0xbd8afa783e449bdaU, 0xbe86a2ab3db16a92U, 0xbd897093bdaace37U,
  0xbd966d7bbdcf04d8U, 0x3dc4f2debc858dfbU, 0x3de981633d1f5366U, 0xbd7d8dea3ca3eda7U,
  0xbd306ba1bba95d42U, 0x3c33f50ebe25ea56U, 0x3dbb3661be473bdcU, 0x3d133021bd41358cU,
  0x3d7f2cbabd95db96U, 0x3d77d2c1bd16b1e2U, 0xbe12ce76bc7317e0U, 0x3d4d92d4bd2ab920U,
  0xbdfe01663c069e7cU, 0x3e83edf1bcb458faU, 0xbd4396cc3d922c33U, 0xbd6a11903e62b3ccU,
  0x3db6ccb7be9bb90eU, 0xbdd0da21bc3ada95U, 0xbdd9b4513dfe1087U, 0xbd94e6a2be833203U,
  0xbe094830be07f523U, 0xbe4835543e43e9b8U, 0xbeb2fa1a3e1acbdeU, 0x3c6f9102be577216U,
  0xbe52a10cbe253e59U, 0xbb33fa5a3daefbebU, 0xbd2f064f3e01271aU, 0x3d10972fbc47b348U,
  0xbd8a2998be17e504U, 0x3ceed0b73995280cU, 0xbe546b653e12bc66U, 0xbd795c1cbc297b5eU,
  0x3c542d01bd68f711U, 0x3e026be03d1045feU, 0x3d87b1453df02a35U, 0xbd80448f3e2884d4U,
  0xbdc3055c3dec226fU, 0x3e09d8553dd34395U, 0x3d1b82d93e016696U, 0xbdc242763da55948U,
  0x3dd19886be9af986U, 0x3d8511d9bd772fedU, 0xbe3c0371be0dce61U, 0xbc4da054bea35436U,
  0xbe0853a6be2e2456U, 0xbe81a4673c4174baU, 0xbea0c80bbc1a896aU, 0xbd305c44be005ae1U,
  0xbee3d0f0be9002a4U, 0x3d4e19cb3e38a7bcU, 0x3d2241723e5bf5b3U, 0xbd834ead3e09a525U,
  0x3b4d36f3be323646U, 0x3e3d7af93dc70cd9U, 0x3e121e043d964d0cU, 0x3b0129653dacccd2U,
  0xbd198a5d3cb40975U, 0x3e8a7b383d90c9f6U, 0x3e50b8ee3c60cca6U, 0x3e84fb94bd4c7364U,
  0xbe11203c3e81fc60U, 0x3d5b370f3dff853aU, 0x3c5d1087bcf063a2U, 0x3da28f7d3d9ae98aU,
  0x3e249b4ebaf0f5e8U, 0x3c374a43be4df2b1U, 0xbe079b59bdb4a5d8U, 0x3d8b890ebdaee8b4U,
  0x3e6be345bd8db7e5U, 0xbcb6d9f93c03e009U, 0x3cf70c433d51ae1bU, 0x3d4f30383db8abd4U,
  0xbd859f713e049aabU, 0x3de18fba3d4385f0U, 0x3dfa32843e2c74d2U, 0x3dc942673dffefc7U,
  0x3d63401dbdb8c623U, 0xbcb0924ebdb9bb56U, 0x3dc68fd2bd8fc4ffU, 0xbd68cef13dae736dU,
  0x3e44f7a73e33840bU, 0x3dd6fe6cbde31cf9U, 0x3d6437e5be0e750eU, 0xbdda08af3ccc3dddU,
  0x3ddaef94bdec380fU, 0xbd745eb83e27ea5aU, 0xbaa799db3e01e5a4U, 0xbde327253d9b4c29U,
  0xbc5bb7223dc194c0U, 0x3e12854a3dddebebU, 0xbdf291253d8e549eU, 0xbdba7cc8bd33ae07U,
  0x3d1b602d3d44204cU, 0xbc47b0e13e3cb814U, 0xbc0cdd273db6f0fbU, 0x3e1e98273d799bdfU,
  0x3da9bed7bc6475f6U, 0x395f92663df6e51aU, 0x3d38c29c3e1dcd89U, 0x3bd7dc1e3cf16ec2U,
  0x3e1de039bd940fc0U, 0x3d5f6696be5804e8U, 0x3e4439bb3cdcf396U, 0x3d93f26bbd870119U,
  0x3c389a403dda4afcU, 0xbd046ca73c384c47U, 0x3df5ed06bdeee9c5U, 0xbe254425bd8ca6f1U,
  0x3e288921bdf52db4U, 0xbb8710823d1df672U, 0x3d6473593dbaba9eU, 0xbaec8a3e3d313795U,
  0x3ca0c0e93d5c6ae4U, 0xbdbe62dd3e4e48c8U, 0xbe29d4683dc7c5f5U, 0xbe2c42e8bc86c942U,
  0xbdc1222e3da79dc3U, 0x394ca4003e4bf91dU, 0x3e0131a7bd976c51U, 0x3cd407f7bd910c1dU,
  0x3da475553dc218c2U, 0x3b92c5e93ddac198U, 0x3c96e0f6bc39e7e8U, 0xbd7760b43d9001a6U,
  0x3c7e5d5abc020065U, 0x3dcc6975bb606e8fU, 0xbd5e7ff83dadb110U, 0x3d74c55dbdb6c880U,
  0xbcfc4a5fbd0a4f09U, 0xbd849597be5c546dU, 0x3e231ceebdc97648U, 0x3da3c79e3e243f15U,
  0xbd7105df3d9af3c2U, 0x3d6f2017bd02a52eU, 0xbb5a109b3e6be611U, 0x3df776c43e158a86U,
  0xbd89daf93d929ac3U, 0x3e2217043e214576U, 0x3d63f2e13d97f350U, 0xbe0bbafcbda812d4U,
  0x3cb3a3ae3d039aedU, 0x3de58e9d3d6b05e4U, 0xbd297fb53d8d22c4U, 0x3d75280e3da9051bU,
  0xbe3a28423e1588b1U, 0x3d7ceda23d813102U, 0x3c57b7613d522b5cU, 0x3e105e553da294a6U,
  0xbd6787a93defeba7U, 0x3d438a5bbce4d357U, 0x3d7cd3c03d54d32dU, 0x3dfdfd073da37cffU,
  0x3d9ddc4b3d4a562bU, 0x3e6bb29dbd927b70U, 0x3cdc84633cf964cbU, 0x3dc8c95cbdaa40b0U,
  0x3b429831bd5a081eU, 0x3cf2076e3e2c9b86U, 0x3dbd1c943cf4289fU, 0x3dfe90583e14eb7dU,
  0x3ddf16a63d23ebe9U, 0x3c97beac3e29db5bU, 0xbd8d08a83e0dba9bU, 0xbdb40e8f3bdfa4bcU,
  0x3d09e141bc56f47dU, 0xbe0e8c6dbda118eaU, 0xbe354910bd09441fU, 0xbdb9cdba3d9c2679U,
  0xbd45b0193dbb8cb4U, 0x3c6b92903e12cf27U, 0xbd95007a3dfcefb1U, 0x3cb9678f3d753068U,
  0x3e195f853c64ceddU, 0x3d0b886ab97d9b73U, 0x3e05eef4bdd91812U, 0xbb3b86273cbfca29U,
  0x3dc3efeb3de4d8fcU, 0x3cf260a9bd86fce4U, 0x3de09efd3d44fc4cU, 0xbda852833d696d20U,
  0x3c86bda93d9597b4U, 0xbe0182a3bdb4dc6fU, 0x3d8f921fbb8edec3U, 0x3de51d6f3dfd5bbeU,
  0x3dbe0406bd42cb10U, 0xbd7fb9d13de63499U, 0xbd67847e3e6bedc2U, 0xbbf9fa00bcc6c710U,
  0x3d0f794a3d809792U, 0xbe2f867f3ddef2e5U, 0xbde0fe0e3d22db04U, 0xbd491cfb3c9a72b8U,
  0xbd2d30cf3d567e83U, 0x3d763e063e1e826cU, 0x3e06e75a3d994bf2U, 0xbd9feefebc0f8764U,
  0x3e53fd303e055fedU, 0xbdcd68ef3d20bdb5U, 0xbd09e6adbd74ce49U, 0xbdf36c7abc1c9b27U,
  0x3d1e520a3d2b9028U, 0x3d7fb4c63dafac44U, 0xbde659b33e14b734U, 0x3e0b28d53de62a85U,
  0xbe0b8ccc3e10296bU, 0x3e29491fbd4478bfU, 0x3e663a253e0f0f06U, 0x3e02f6cf3e9ce086U,
  0x3d99b8db3d9c6353U, 0xbd8122f63ecbb9f4U, 0xbe324ac83ea9edf5U, 0xbe3d02373e7f150fU,
  0x3e4be12bbe9cea13U, 0x3cd19788be061cfeU, 0xbe99ca92bd01813fU, 0xbe0d77fabd3d1e5bU,
  0x3df174e6be766fdeU, 0xbc802a853d4569d6U, 0xbdb234dfbc36dfbeU, 0xbf02d9a1bdc93fc8U,
  0xbdf09a47be46d73bU, 0xbc6c57c4be9efe79U, 0xbdb7530fbf2454d9U, 0xbefd1005becb26edU,
  0x3e72d513bea44a6aU, 0x3cafd799bf0b84cfU, 0xbe887886bf10a004U, 0xbd22be243e6979b1U,
  0xbf0e5964be535b01U, 0x3ecc9f733d9a99f1U, 0x3ef39bcb3ddb0cfeU, 0xbf8f8c59be344327U,
  0x3e374959bea0954aU, 0xbe25081fbd694568U, 0xbf0e793f3db68c46U, 0xbdb43ea13e0367b5U,
  0x3de84e26bda2fcc4U, 0x3d9a4f20bd79bd6bU, 0xbd33c0f03dd76fa0U, 0xbcdbde093e3e8996U,
  0x3d4a94cfbcff7593U, 0xbd1a17db3d7cf997U, 0xbe7e11c63d901e1fU, 0xbe980bdfbe67ede8U,
  0x3d9e9f0abe076801U, 0xbe03c7fabf0598f1U, 0xbe734761be8f257bU, 0xbea4dd86beffca7aU,
  0x3caf677dbe01e538U, 0x3e09f9d2bd6b4c12U, 0x3e8e6b373e219ee8U, 0x3de76fcf3e250770U,
  0xbefaa196bdd54684U, 0x3e0399933df3a38dU, 0x3c18405f3e01dd2eU, 0xbea9e3c9be9c59f8U,
  0x3e46e959bf0c6ac7U, 0xbdb2e0debdc37c9bU, 0xbed13a9c3eb3eed0U, 0xbe5cb3863de174acU,
  0x3d74fe6fbe516002U, 0xbc0a3123bddb49a7U, 0xbec88d15bdfc41abU, 0xbd8202a6bc34ae31U,
  0xbcd019bcbea0f1edU, 0xbea2e7003ce23272U, 0xbed954e7bddb5d89U, 0xbf15ae28be8f28bcU,
  0x3c096986bda26c32U, 0xbe2a569bbea6b6e5U, 0xbe08eadcbe490a2eU, 0xbe2aa942bec4a7e5U,
  0x3c614ae2bda77c9cU, 0x3e8be5e23e06c333U, 0x3ea1cd5f3d94fe42U, 0x3e25eca3bc287986U,
  0xbe1bd38abe95cea3U, 0xbc867eb43da7cea6U, 0x3cf17fce3d8d3c51U, 0xbe48f43abeed90eaU,
  0x3e43eaa23d953093U, 0x3dabc2973eab2322U, 0xbc445c903dafe6e9U, 0xbe76bad33e97fdeeU,
  0x3da40b96bd622ea9U, 0x3db24423bd26b32aU, 0xbe4837babe52fb99U, 0xbea016893e61b95eU,
  0xbda41f75be293df8U, 0xbd99e69ebd6b353fU, 0xbec0b6e8bb87355eU, 0xbf24a47fbe8d3b1cU,
  0x3d1e0efebe863cf2U, 0x3d8070c1be603fe2U, 0xbd717e0cbd3b5278U, 0xbd785358be8bd82bU,
  0x3e1809b7bdc36eaeU, 0x3d1c43efbd2afdcbU, 0x3d594739bd70a78fU, 0x3c40a39fbd7a2651U,
  0xbf007c69bddc9f55U, 0x3d7fc6fb3e2b290eU, 0x3dc288753e41cdbaU, 0xbece0704bf163551U,
  0x3e953e50bceff444U, 0xbd6741373eb77dd3U, 0xbead53b33ec71c5cU, 0xbe409b4cbe12a597U,
  0x3d1aee4abe431956U, 0xbd45227cbe035e3aU, 0x3c7c0684be0b5d7bU, 0x3d808b7a3e5be537U,
  0xbbecca28be59bc14U, 0xbc99bc5ebcbc15f9U, 0xbec55557bd14357aU, 0xbf11fab7bf0aa681U,
  0x3940838ebe283176U, 0xbe1c46f6bec8cedaU, 0xbe909dfdbebcabf4U, 0xbeaf4ad4bee9aae5U,
  0x3e111767bd7bef6bU, 0x3dddbacabe6a7759U, 0x3e49dea3bd804453U, 0x3cd165713de6924dU,
  0xbf0ef104be6c8514U, 0x3e29713d3de7cc6cU, 0x3e1d1e283e0d3c32U, 0xbec66939bd49dbc7U,
  0x3e354703be32b991U, 0xbd2326873de0f211U, 0xbea016763dd823beU, 0xbe8876fd3d58d33fU,
  0xbc7a9299bd27bd6dU, 0xbdaa45f7bdc91e4dU, 0x3def3001be10083eU, 0x3bbe8fd9be51e62fU,
  0xbe3e9b55be267f12U, 0xbeab7e72bda0a657U, 0xbf1f8ae2bdd0df5aU, 0xbf98ad73bf44c2a0U,
  0xbe0dfde63dd0afe0U, 0xbef0074dbeb80967U, 0xbf36efc5bef0794eU, 0xbeae9ec5becfbcc0U,
  0x3d305d62bdc90be3U, 0xbeaf92333cbf5f31U, 0x3ee834ab3da740fdU, 0x3e8dbc593e21cf11U,
  0xbf06e802be1f7d3dU, 0xbd18f2573e07eadaU, 0x3de5b2ce3e103d42U, 0xbe6a2f2abe51fe42U,
  0x3ddbfc513db2dabbU, 0x3b1d936cbec5b6ecU, 0x3d42dd35bf0176aeU, 0x3d1641f83d966155U,
  0xbe06a8d13dcf05fbU, 0x3d606765bde48a72U, 0x3dac1ff73de0786cU, 0xbc4828d23df42c5cU,
  0x3d6a8bdb3dcfe481U, 0x3e29583bbcd7e924U, 0x3db29e9dbd9edc41U, 0x3da99ff2bcf16de0U,
  0x3deabcc13c96af05U, 0x3d20e622be71195fU, 0x3d86de46bd95a880U, 0x3c809cb1bd191064U,
  0xbe1681a93ddcea4dU, 0xbce95540be5654a8U, 0x3d283d1cbc1ab018U, 0x3db1a2cd3e2e5d4aU,
  0x3d870d693c8d8579U, 0xbe0185c73d0d1dddU, 0x3ce27cf83d5db25dU, 0x3e3170a63de26fc4U,
  0xbd3aee883e4771f0U, 0x3d087b3ebe86ec99U, 0x3c8bc4d4be4ed94bU, 0x3e000d36bd244f27U,
  0xbcd062273e38f6d2U, 0x3d8700e4be30d5b1U, 0x3da59676be1fb45cU, 0x3cc1faa13d3e725cU,
  0x3e58474f3de34f00U, 0x3d3e1c96bde1105dU, 0x3d2acd96be4153b5U, 0x3dbc11793dd8bc41U,
  0xbc047e7abc2668c9U, 0x3d7003d03c3dc825U, 0xbe049c16bd692d1eU, 0x3d1fc9d7bd936f88U,
  0xbd3b629b3e43123dU, 0x3d9025153d27fab7U, 0xbd81daebbce1e85aU, 0x3be30e8abc075db3U,
  0x3c5625113db31e43U, 0x3e1a07c33d13b2cdU, 0xbdaafdeb3cd709b9U, 0x3dc7cd913dbf1c69U,
  0x3e0490153e0e8863U, 0x3d9b9b7bbeb158aaU, 0xbe0c6d6fbe619662U, 0x3cd974a73deb8456U,
  0x3df075d13df8ab98U, 0x3db872b1beab9850U, 0x3daf794ebdc221e1U, 0xbc711ed7bd91eff4U,
  0x3e5e4c6bbd901deeU, 0x3d7935c4bdad755fU, 0xbe057ba2bdc74eceU, 0xbc84642d3d04956dU,
  0xbe6cb686bda4f27bU, 0x3c4bdd053ddfcf96U, 0xbd8515af3e21b3a6U, 0x3e0ca876bd2d53a8U,
  0x3d380473bc7dd6deU, 0xbda7c6ea3dbc2badU, 0xbdcf2931be0f4086U, 0xbd051f48bdeaa5f1U,
  0xbbae21febe03edf8U, 0xbdd2b0de3c01a11cU, 0xbe3a461fbc9820e9U, 0xbc90b04abe3f7b7fU,
  0x3e09e89fbdc7fb12U, 0xbe30f618be11065cU, 0x3e08132bbe34de1dU, 0xbd2aa2383d85d055U,
  0x3e6b30fabcec998eU, 0x3d37ba7ebe753bf8U, 0xbd992f85be919a34U, 0xbd5d6f393db59f7aU,
  0xbd081870be13cc8bU, 0xbc8da0b93dbb522aU, 0xbd147516bdaa8c50U, 0xbe0c99fabde0b871U,
  0xbde7d6263d14caceU, 0xbd73e3823dc0ded6U, 0xbda3f0bf3d374982U, 0x3dfd38cdbdae3c97U,
  0x3d7aebebbc8629fbU, 0xbe36d952bd240c88U, 0xbe5f3bd3be4899b2U, 0xbd0a0087be86e0adU,
  0x3de76ec7bd5edbadU, 0xbe9bbb59bc7d2717U, 0x3c96a391bb2ec553U, 0x3c822c3bbe28dacaU,
  0x3d81d188bd8873eaU, 0xbe51985c3daebe60U, 0xbd9ae774bdfd1eb0U, 0xbd68f0133db92d3cU,
  0x3e107628be0eef73U, 0xbd638e373d253ba5U, 0x3e16a91bbc76731cU, 0xbcc5c78d3deef6ceU,
  0xbd38e669be217f20U, 0xbd8d024f3e2d906dU, 0xbcfa9b983d8f090fU, 0x3d5eeb693da1b491U,
  0xbe105999bc8d7956U, 0xbd6aba663e0f6aa2U, 0x3d7edb7c3dd9ffe7U, 0x3ce1be75be0e6c19U,
  0xbdc9d2cebcc26821U, 0xbe004314bd30184cU, 0xbe91a57cbe679311U, 0xbd9907bebdbe8606U,
  0x3dcd0720bc80d4b5U, 0xbe342dca3d1d35a6U, 0xbc865f22bd7cac18U, 0xbd07fed0bddf97c3U,
  0xbd8241c0bd8e87a5U, 0xbd88e603bcbe7c8dU, 0xbe47faf5be1ba351U, 0xbe5c5c923db8f83cU,
  0xbd52714abe5cab9dU, 0x3e56d8a93a9b2927U, 0x3e0438aabd884ffaU, 0xbd392ce2bdd54e56U,
  0x3d2538113d647c25U, 0x3e0376f33e07b54eU, 0x3ddd60b53d536429U, 0x3dcf0b2c3dae085cU,
  0xbdd74c3fbc3cb504U, 0x3daa64b23e100c13U, 0xbd059c1a3de8caeaU, 0xbc98a80b3c842000U,
  0xbe1d1e2c3d2df9bcU, 0x3de7250fbdb98b08U, 0xbe1a584abe0b7ddeU, 0xbe1ae6bebc7c3232U,
  0xbccfa332bbaa9ae2U, 0x3d45952fbdc0e9c3U, 0x3c95272ebccaa1b3U, 0xbc0a4fbbbe037efbU,
  0x3d8827153e145418U, 0x3dd4ba4cbe03c5baU, 0xbc62bbd6bcc25c2dU, 0x3cdc5e303e00ab4fU,
  0x3e354cf83e5dbbd1U, 0x3e075cab3ddb42bbU, 0x3d9b98463de686d0U, 0x3bdfb1d03e24c943U,
  0xbea692513e7b3232U, 0x3e439de13e631794U, 0x3db78b2a3dea0d8bU, 0x3e5390ab3d1f604fU,
  0x3d7df46f3e28b550U, 0x3e1bbec73e15061eU, 0x3e2c90e93ef0e64dU, 0x3e8be43f3dcdbc0aU,
  0xbc4050213e0ee8fcU, 0x3e17e9f13ec1a08bU, 0xbcd8e1fb3e86b5a9U, 0x3e7824b73d78c9e6U,
  0x3cedbdfe3e537adaU, 0xbc8914593df11a0fU, 0xbe3ab2e8bd81e12dU, 0x3e605a423dea70a9U,
  0x3c82f6db3dbc08b1U, 0x3db79df83d7b8cbcU, 0x3d39c2403df1aa70U, 0xbdd4ba22bdc0b670U,
  0x3dac33b7bd95c98aU, 0xbd9741813e0de917U, 0xbe15286d3e264acfU, 0xbc29a09abd9920d2U,
  0xbeafc0163d37430fU, 0x3dc8d0d43e026457U, 0x3d3395f23dbe1cf9U, 0xba5790723c1cbbaeU,
  0x3e0b38613dfd0e41U, 0x3ccac6f13eb02c31U, 0x3cbf4e1d3dfcd449U, 0x3d3ab6603ddb86c6U,
  0x3cdfddd23d89e359U, 0xbe396673bd32f5c5U, 0xbd968b69bd574c58U, 0x3e0fa35c3d2144e4U,
  0xbe5cd1a53e50cdbeU, 0x3d52ac523da7fba0U, 0x3de956a03d942e72U, 0x3db2c8cd3ea5fc7dU,
  0xbde22febbcc17411U, 0xbc1ccf413c8001a5U, 0xbdf76951bd25a3d2U, 0xbe169468be0323e3U,
  0x3de5c2a5bdba7413U, 0xbd92d8a53da57b63U, 0xbe88281c3e673cbaU, 0xbd972032bd80e444U,
  0xbeadec50bbd22126U, 0xbcd8a4703e32ae63U, 0x3d18a46b3cb3c567U, 0xbd86a4f6be107ed3U,
  0x3c87c5e83cb8a019U, 0xbcda16f23d870a28U, 0xbd52eab43a89b495U, 0xbd92e1e8bdac30c1U,
  0xbd3a77dbbcfd3bc4U, 0xbe1d0ccb3c3fe4fbU, 0x3da575a23e2b8b27U, 0x3d686c28bc6e8ab3U,
  0xbe9279913e525e9eU, 0x3e14ec353dc87b4cU, 0x3e4f45193d8c989eU, 0x3e823b293ed09d6bU,
  0xbe4488a7be1914c2U, 0xbeb82fb33cb71c86U, 0xbe24c964bda4df91U, 0xbc8a4f00be2f5d45U,
  0xbe04390cbd052a73U, 0xbe23b9123d28ca3eU, 0xbe92d898bc11104bU, 0xbe00e634be2079ddU,
  0xbe1d6238bdcab128U, 0xbe2dd666bcdd6549U, 0xbe15d65cbda57e01U, 0xbe10aaeebbb56141U,
  0xbdc34f59be03413fU, 0xbebad90c3d99eec0U, 0xbdf1e7aa3e2df26eU, 0xbe0ffce23d0e0142U,
  0xbd527d883cefc609U, 0xbe1b4f933e4b48eaU, 0x3cfe82e33e6d92e8U, 0x3cff5a513d86ed3bU,
  0xbdba92d73dfd46e4U, 0x3c15eb413d292498U, 0x3e5930553dbf9dfbU, 0x3e423a113ec3d4d0U,
  0xbe1b71bdbd859d54U, 0x3cd67ba1bce84dedU, 0x3dba1370be93ee24U, 0xbbb6c840bd9c3c8aU,
  0x3d818e7dbbac7b93U, 0xbe7dfc40bd2a1320U, 0xbe5b080b3d86150cU, 0xbcc48bc3be81841fU,
  0xbdd71310bdae4aafU, 0xbdb219f7bdd90235U, 0x3c9b1b40be3eb2e8U, 0xbd0e5afdba4b078eU,
  0x3d6aa8cebdbb1093U, 0xbd3e486f3ce541c5U, 0xbe19838f3e03805dU, 0xbe29b758be58f85cU,
  0xbc2b22553d893198U, 0xbe6512863dffd2c8U, 0xbe882c0c3db1f942U, 0xbdf96420bea60aeaU,
  0xbd8921333d65bea4U, 0xbd26d92a3c2648b2U, 0xbc961abb3c6806caU, 0x3bc6c690be8722aeU,
  0x3da9467ebcf3c390U, 0xbcc60e9dbeb9c62bU, 0xbda216e4beb973bcU, 0x3c9a40f2bebd090dU,
  0x3d061d9a3d2469c2U, 0xbdc52387bbfbf65bU, 0xbd97b9e13db13ad9U, 0xbdf84198be5e3636U,
  0xbd434389be0f537cU, 0x3bb8aba4bc1af411U, 0x3e157173bd5e90bdU, 0x3daf532a3e3416a9U,
  0x3eb63138bdd0332bU, 0x3dbe50e03e629b71U, 0xbe4b61dcbdd2dc10U, 0xbe8eab1ebd33fe35U,
  0x3e1fbeb2bcf8b36dU, 0x3c918a30bcef82b0U, 0xbf20f5fabd88dd93U, 0xbe8f9175bee92cffU,
  0x3cf52310bddc0dedU, 0xbe5e7fd23cd661aeU, 0xbe65a10cbccbdaf7U, 0xbd46e2f9be3c7823U,
  0x3e0c09a9be0ac10bU, 0xbe3f4765bed4de7dU, 0xbe90d0b6bec449fdU, 0xbde3667cbe514bb4U,
  0xbd94431ebe2201e3U, 0xbe71149dbd97c80dU, 0xbd4121403b0644eeU, 0xbd424e26be44ef5bU,
  0xbcbc36f7bd543a20U, 0xbdf9ec1abc2bec55U, 0xbe200e3dbd53923aU, 0xbe09d247be3efb9aU,
  0xbe53bf8dbdfd6d85U, 0xbde8fa723cabfd28U, 0xbb2d7b543e859494U, 0x3d7aa1fabd42857aU,
  0xbdefa874be049d45U, 0xbe63daaf3e057f70U, 0xbcb1946a3e39d1acU, 0x3e05a6a9be4d8b50U,
  0xbe7b24073d583833U, 0xbd3ec30e3d5adec6U, 0xbdda0ae53cec026eU, 0x3c709cd73d362566U,
  0xbcd790e4bcc2bfcbU, 0x3cc6c9aabdcdeb87U, 0x3d325935be87e2e5U, 0xbd16faafbcd441b2U,
  0xbe94826cbd9cdc1aU, 0x3dcb9df13e347188U, 0xbe1483bd3e350266U, 0xbc114693bd7bb559U,
  0xbe278978bd394ad3U, 0xbd305a393c51af83U, 0x3e2f36cf3de8caadU, 0x3de63d0d3de43fc2U,
  0xbd78165a3e07f64aU, 0xbc105364bea05e3aU, 0xbd020030becc3c12U, 0x3bc62271bb8801beU,
  0xbd4092a3bde73ce2U, 0xbc766065bc3bb4f3U, 0xbe0bed8abda6dd33U, 0xbd22704abe275227U,
  0xbe8f21cdbda1f933U, 0xbdc4fafa3dbd2176U, 0x3e0a7ec93dcd4106U, 0xba71e6c2ba1720faU,
  0xbdc96fe5bd92bd8eU, 0x3e03bdfabec9fac1U, 0x3d842c40bd296bfeU, 0x3e18ce863ca4aee6U,
  0xbdad0ea63e50742dU, 0x3e48039bbd914524U, 0xbd0eabab3cff82dfU, 0x3d06c7433dca412aU,
  0x3e12ddb03deba217U, 0x3e8aa3073dbd3780U, 0x3dc8277e3cfbde29U, 0x3da3d8cd3ce4c45eU,
  0x3e3871ff3d7c6f5fU, 0x3d94ce6ebeababd4U, 0x3d2f4747bea0e98fU, 0x3db928903dc79477U,
  0xbd0687a43d11ff0cU, 0xbb96bceebd4cbd8aU, 0x3ddb7ff03d906170U, 0x3dc44df3bc9525deU,
  0xbe0907563e69a343U, 0x3dd9343e3ddf7775U, 0x3d3845003c4ea497U, 0x3e6b68e73e0eaecaU,
  0xbd2753c63d941911U, 0xbc08e469be9dad9bU, 0x3e82e628be59b732U, 0x3d72cd133dfac513U,
  0x3d875c813c97b8f4U, 0x3cc908a3beaf9659U, 0x3dbac1cdbe43e74eU, 0xbae6e3b7bb48b5a0U,
  0x3e18e7ac3dee343dU, 0xbcec6b3abe3b1098U, 0x3dcef803be0bc68aU, 0x3c4107653d25b71eU,
  0x3db248393da1cb1cU, 0xbe1bce9ebd98352aU, 0x3dc55a943db11c82U, 0x3e0913adbc7191a0U,
  0x3d1048f03d13ec39U, 0x3c8109dbb990bc7dU, 0x3cc137843e2d3b06U, 0x3d95d44e3c95d169U,
  0x3cd0c8b33da10ae8U, 0xbe0f6b383c5e9d55U, 0xbbe24b713c8fd287U, 0x3dbdc351bd1baacbU,
  0x3e1e4f793e1e318aU, 0xbe790b49be545058U, 0xbdb61d0dbdf24456U, 0xbe1b04d93dbade74U,
  0x3d62c8893d7b462aU, 0x3cfa1ca8be21092dU, 0xbb2ce834be99033aU, 0xbcb498b8be1c4c38U,
  0x3e29b8863bab174cU, 0xbed83779be340fa2U, 0xbdc41e59bd19c3bbU, 0x3af1ce44bd5d3f2cU,
  0xbe2ae232bd94f386U, 0xbea3b15e3e491589U, 0x3c9d79323e268382U, 0xbdacb4a7bd159f06U,
  0x3d5c6292be05094dU, 0x3cc71b993e83d395U, 0xbd952a3a3b98e7beU, 0xbdab5ac5be931931U,
  0x3e2604dcbe40b7fdU, 0xbef25755bd9a26a0U, 0xbe3fa810bccd1ea6U, 0xbc81ea11bed0ba4dU,
  0x3dfb0a143d780cd0U, 0xbebf447cbd0d3902U, 0xbe1aa100bd8f4fa0U, 0xbe55a5d53e33e0ceU,
  0x3e1d5ac1be059c0eU, 0xbd8a130fbda061eeU, 0xbd4ab26bbe12f424U, 0xbe7b5c123e91746bU,
  0x3dc21479be18bba9U, 0x3e0553833df87e9bU, 0xbdc93e94bca85ce8U, 0xbcb3f4db3e187f26U,
  0xbe079f0fbe333395U, 0xbe5f1af33e695b94U, 0xbe5d7d4cbd590be8U, 0xbd634e4cbe8461c0U,
  0x3d3e0dbcbeb3c93eU, 0xbe9e4b9e3dc4d5c0U, 0xbea8f948bd701c1aU, 0xbe1d4381be951afcU,
  0x3c9036e0beb49bb5U, 0xbeafa5383be4bd3aU, 0xbe198d5abdf0fa40U, 0xbd8ba512be986534U,
  0xbe6292ad3dad64f5U, 0x3d50a946bc06c565U, 0xbdcce791be46f2f1U, 0xbddbb7b83d1987daU,
  0xbe9bcdb3bdd68037U, 0xbcd115843be30a65U, 0xbcd50c7d3cdfcf84U, 0x3c9d45bf3d4ce607U,
  0x3c1a1f423df7113aU, 0x3e2bc486bd1f5d2bU, 0x3da47c4cbe1af9f7U, 0x3cb60ddebd44fe1eU,
  0x3b9a783b3db183ccU, 0x3c5b86f53d2a9a71U, 0x3c6105ce3b98475cU, 0xbb138a4d3cbe69f9U,
  0x3e5953563df613e5U, 0x3c38bd9cbe0e6211U, 0x3e16fc90be201d25U, 0xbd5570bc3daee3ecU,
  0x3cb5e12e3d144938U, 0x3ce1745ebc00b03dU, 0x3dd2a1b13beeed2cU, 0xbdcb1502bde5484fU,
  0xbd9fb1553c965264U, 0x3b67320ebd07b222U, 0xbd49d32c3d3140f2U, 0xbcdea5e63c339aadU,
  0x3d1106a2bd4b1303U, 0x3e215fe23e3d9a1aU, 0x3e2f5b633e15d933U, 0xbd738d23bcba79edU,
  0xbd5e188d3ca5138dU, 0xbdb5582dbd5db3a4U, 0xbda77726bde23e8dU, 0xbdc1b5e4bd5d676bU,
  0xbda9d6cfbd02efbfU, 0x3de5fdbe3d42fabcU, 0xbe050b063a52affcU, 0x3c6fa0f53caaddeaU,
  0x3da9d11c3dfb5256U, 0x3dcbadd1bd1576b3U, 0x3d658f8a3d6180b5U, 0xbd43b9bcbd55237dU,
  0x3d5275a23cd4bd56U, 0x3dbf5b243c89bb20U, 0xbd81c9f63c3db32bU, 0xbd7e9178bdacc42aU,
  0x3cf994a1be01a287U, 0x3dfadc66bb040cfeU, 0xbe0656b53d43a0f8U, 0xbdd33608bb16c76cU,
  0xbdaf87dfbe2d3a00U, 0x3e221e4f3cce6f8bU, 0x3d027e4c3c9332eaU, 0xbe6927e2bd0b3919U,
  0x3de4b609be3c2ef5U, 0x3dc43bc33d1b2ea4U, 0xbe0753c1bddbf8acU, 0xbe92a8303c8daaaeU,
  0xbdbc4667be52fbeeU, 0xbd2a99a53e906b90U, 0x3da8ece9bc242903U, 0xbe71bc5abd9869d0U,
  0x3d1f4687be5c301eU, 0xbdbb51aa3d05d611U, 0xbe3c679fbe50a7beU, 0xbe188d74bea39b9bU,
  0xbe025164bea6773eU, 0xbdd88fc13c813174U, 0xbd9784193cdc577bU, 0xbd9c8881be4013e5U,
  0xbd31486b3c71e611U, 0x3e25fc393e55e55fU, 0x3dbb23263e76a391U, 0xbdbf19063e38828bU,
  0xbd0b62a5bca88e1bU, 0x3dd6259d3e21026cU, 0x3de3b5a73dc32b13U, 0xbd9962fb3d460a2bU,
  0xbd060c7f3cf11fa1U, 0x3dbe77373d630736U, 0x3e1bda2bbdd9a9bcU, 0xbda57c993de2d1aaU,
  0xbe246f433c5c20ffU, 0x3dcf2eb6bd07bbecU, 0xbdd385ecbef891a1U, 0xbe51f98abd0e6b54U,
  0x3db4ac2fbe3001e9U, 0x3d429018bdf1069aU, 0xbe5d0ff7be18977dU, 0xbe270f7a3d52c3efU,
  0xbe08a3a7bcf50834U, 0x3c9a0e113d4a3833U, 0x3c50979c3cfddf15U, 0xbd2161003e1401bbU,
  0xbe4623ebbda0b45bU, 0x3e1cf2c33d25661fU, 0x3deebda03e052b0bU, 0xbe0164303dce47efU,
  0x3d82f04e3c91f9eeU, 0x3e081cd0be5df971U, 0x3e2d5a07be0781a0U, 0xbd60f9793d11d33cU,
  0x3e6bfa6b3b80e6abU, 0x3cee5574bd8f0ff4U, 0xbce24220bd610e94U, 0xbb192a283c412f4eU,
  0xbdb2ea573dc38ee6U, 0x3e20aab5be87e60bU, 0xbcd54fcebe50fd0aU, 0xbd4f6e783e0af858U,
  0xbcef87bf3b8df10fU, 0x3d46d449beb79615U, 0x3e441ea9be8106f1U, 0x3d2abf963dc9c430U,
  0xbd4290363e3c7cb1U, 0x3e92892c3c3f83d2U, 0x3e18add53d07b30cU, 0x3da8f3c33eacae02U,
  0xbdc34fc83e19b846U, 0x3d5140b2be5ff810U, 0x3e5ab7b4bda6d403U, 0x3d416be3bd70e8a1U,
  0x3c56e1463d856cdfU, 0xbe4880b3bd886ac9U, 0x3db45912bde58fa9U, 0xbdd400b7be42a139U,
  0x3d69d6d63d8eedb0U, 0xbe612a0dbc56875aU, 0xbdf1f8fb3d13a2faU, 0x3db2c3f3bd254587U,
  0x3ddf468fba029250U, 0xbd5571fd3cd80c7cU, 0x3e2772da3cceb36cU, 0xbd8760cbbd451339U,
  0xbd8450d53cf2007eU, 0x3cd5f9a9bc897138U, 0x3e04e692bdcdc11cU, 0x3cd8748ebddb12cdU,
  0xbc6911a7bc50311cU, 0xbdedaeabbc1e1f21U, 0xbdcafeda3c9e3b0bU, 0x3d59e135bea3eb13U,
  0x3ce0878d3d303c61U, 0x3df1ecba3cebb082U, 0x3cbcf7abbdddaacaU, 0x3e09b2b23d6732d3U,
  0xbe612ab03e6c71ceU, 0x3dad8de2bdb79892U, 0xbd521f923c125373U, 0xbd2077e13ced790bU,
  0x3db1af933d9802c9U, 0x3df76ba5bd8bbd8dU, 0x3d33e781be19559dU, 0x3d455189bd312d5dU,
  0x3cb2fc113e1753f8U, 0xbd3b87413e3614f0U, 0x3c7417b63d0a7af0U, 0xbcab5dd3bd84a002U,
  0xbdcf2c74bca7a4d0U, 0x3da784ea3d48487eU, 0xbc87a4b1bbe744b2U, 0x3caf973d3e01b334U,
  0x3daf681b3e233028U, 0x3d1c037c3d4d87dfU, 0x3d0f96a53ccf3df2U, 0x3dfc81fb3dae7c02U,
  0xbd5f1e4cbd1068d1U, 0xbd854c33bd5a811aU, 0xbb6ce606bdc2a40bU, 0x3e1d870ebdbe342dU,
  0xbe6e093c3dcee902U, 0x3e0424f8bda3c669U, 0x3e108115bd73cef1U, 0x3d29a65abd474465U,
  0x3e3eff6a3ddbda51U, 0xbd51fb49bd76494fU, 0x3d013e9abe6dd4a2U, 0xbd5307213d650c15U,
  0xbd8010e8bd2438a4U, 0xbda6d7e73e0997b7U, 0xbc2d81bcbde4e3a6U, 0x3d1d69d33cfd784bU,
  0xbbf433783d14f70fU, 0x3c4f3eba3d8cc826U, 0x3d30584a3c5ace68U, 0x3dfa9ae23d87099bU,
  0x3bc8aac5bc68d62bU, 0x3d74fcb5bd97f2f2U, 0x3c52aa743d75232bU, 0x3cadbfa2bc5ee47dU,
  0xbd7b0817bd2a2d3dU, 0xbcec1f8c3d01454aU, 0xbcb199e0bc303cc1U, 0xbc72af133d932f6dU,
  0x3d3cd676bcfb06c3U, 0x3dbcc0fe3cacdabcU, 0xbd5713ff3d0aa3f2U, 0x3a99181a3d7a6234U,
  0x3e35e6c23d09bc8cU, 0xbdbd036bbe466997U, 0xbd1b08e4bdcb679aU, 0xbdba71c13c1ed526U,
  0xbdc5d9a23da0ef60U, 0xbcd67b693d2d3b2dU, 0xbe0d0dc8bdf29ddbU, 0x3d05eb9d3d60f63fU,
  0x3c9e1a103e03848fU, 0x3d7e6514bd6cc361U, 0xbd6d10acbe2cbeb0U, 0xbde46181bd07b0e3U,
  0x3dda3445bc285b29U, 0xbe0c50c53d1cb186U, 0x3dc78990bd420653U, 0x3dc4cc3bbd98be7fU,
  0x3d2920a13dbcfba7U, 0xbe2e6cd0bd37d8baU, 0xbdc53438be840e83U, 0x3de9ea30bdcf46e9U,
  0x3d955ed53dd3c381U, 0x3bb359ef3dee1671U, 0x3a4c6d2b3db76e2aU, 0xbdfa0ae5bccf3e8dU,
  0x3d53adb93d882424U, 0x3e3c7920bdcf1eadU, 0x3d9c1e46bd190b5aU, 0xbc9dbccebdaab03bU,
  0xbda3d72e3d99ecf7U, 0xbc6f3554bd01f859U, 0x3d5566b0bdc0efa3U, 0x3d04e0fabe0a2c33U,
  0x3d8b1559bd5bca57U, 0xbe1422ff3d55261dU, 0xbcdf071ebe32752cU, 0xbde06425bd50b7f7U,
  0xbbe305f4bc254e2fU, 0x3d3f3994bc1adf08U, 0x3c5cec863dba1a85U, 0x3e01e2d6be0158dfU,
  0xbd6d75913db1d258U, 0xbdb24f67bdde4f1dU, 0x3cbfcf2cbe8c38a3U, 0x3d91e8873cbb92faU,
  0xbe0bff513d24b801U, 0x3d8c4f3ebe1d8a73U, 0x3e109213bdf64037U, 0xbce974c0bd6f5cc2U,
  0x3da1fc15bd02a658U, 0x3e1df9c2bdd2d42dU, 0xbd7abd60bdd5c01aU, 0xbcf3762c3e11bb46U,
  0xbd8c71513d59c62bU, 0x3d5501b3be091871U, 0xbe48f5283d019483U, 0xbd0c49633d1ab72cU,
  0x3d22d2fdbdff562dU, 0xbcbc2fa73ba51ce9U, 0xbc20dcbcbe755eecU, 0xbe0d798fbd58ef64U,
  0xbd8f958f3c8024efU, 0x3cbad9733c6bd8d0U, 0x3daed3ee3d1bbd72U, 0x3e314cce3c85890fU,
  0x3d3d01cc3d6d9602U, 0x3e37104cbe2416b9U, 0x3e40a86abed49702U, 0x3ca2190e3d69f488U,
  0x3e1b17dcbc85737dU, 0x3de1b694be781a7aU, 0x3d408f41be85cb5cU, 0x3cd2a0d83d64e850U,
  0xbd8710763def4288U, 0xbda19a59bcb5a1abU, 0xbd4b22e73d80291eU, 0x3c73b298bde2cec9U,
  0xbd5bd5f73dabd28bU, 0x3d5835783e6db887U, 0x3db79b9c3cebb79aU, 0x3e1a8190bd3d3ba7U,
  0x3dadec07bb6454daU, 0x3e2e62b1be4bd247U, 0x3d7c4e9fbe899b56U, 0xbe2baf03bd5bc8efU,
  0x3cdfd2473d53e8a6U, 0xbdd197b1bd26d967U, 0x3ce7bc94bd0c42b8U, 0x3e28a053be8cdac4U,
  0xbdbd26573d07dfd5U, 0x3d95bb683d873e97U, 0x3d7293e3bc18e0a2U, 0xbc5413543e188decU,
  0xbd9819ef3d90caeeU, 0x3b8b1bb43d8f6b9eU, 0x3e4c688d3d80d90cU, 0x3d7e29c53dfc1831U,
  0x3de2eaee3c73feddU, 0xbcb9d5fabda9021aU, 0xbdbb1b0ebdf94f99U, 0x3de047413d63dae9U,
  0xbd8a2ada3d5e1216U, 0xbd80a1e33d653167U, 0xbdf11122bc6d8ef2U, 0xbd14a3c83d8481ddU,
  0x3c46f6b3bcf50ce0U, 0xbbb004333dcbe8e3U, 0xbdc0594f3db46a22U, 0xbe29941dbdfce59bU,
  0x3d798f5a3d2d7e4bU, 0xbcf0ef59bd645fccU, 0x3cb29efa3d79e5e3U, 0x3e0ac7bbbd0ac03eU,
  0x395a47bc3d3c3d79U, 0xbe0403a6bdde08cfU, 0xbc2e270abe4a19d9U, 0xbd7560d53b8c8430U,
  0xbcb08dc03d8a5e04U, 0x3db579fbbdfa0f3fU, 0x3e156573bd32407eU, 0xbe64eaa53ca8c2ccU,
  0x3d7d33023ce9b338U, 0xbdf7f8eabe0da2afU, 0xbc4920abbe5296dfU, 0x3bc690bcbe2539fbU,
  0xbe323e81bd9b5a81U, 0xbe093a8e3e16330aU, 0xbd784d6dbe10eb64U, 0x3a6e775bbdb51123U,
  0xbdb84f3abd20f7b8U, 0xbe184c553d260246U, 0x3cdf8706be20b4ceU, 0xbc207ae33c8c8808U,
  0xbc288d623de1cdfeU, 0xbd57028e3d09672bU, 0x3d7540d53e289ebcU, 0x3dbf72cabd5f004eU,
  0xbc495734bddf5aaaU, 0xbd9b9561be4be1a8U, 0x3d4b2276bda2e6a7U, 0x3da706fd3ce6c40dU,
  0x3ded9a913e2a1b92U, 0xbd8f84adbc84880eU, 0xbd1ff8d43c3b2f79U, 0xbe278b793cb715fbU,
  0x3d56d53bbd5afdb1U, 0x3ce1e04ebddbc10cU, 0xbd910eb0be2c5ed6U, 0xbbedff423dc6f5dbU,
  0xbe20f64dbe0222dfU, 0xbc87eee33d81d77cU, 0xbc119595bda1fb34U, 0x3da582d63d56de21U,
  0xbccce9893dc15e48U, 0xba9842ddbe2c7f3dU, 0xbddfa408be97b10fU, 0x3ce2e6253cf116e7U,
  0xbe347b35bd87ace4U, 0x3d60188cbd25e01dU, 0x3d7e083fbd86f9b2U, 0x3bbf2e3bbd25586dU,
  0xbde515a83d15e2b0U, 0xbddaa53fbe433302U, 0x3d095d60be8625feU, 0x3dd195e03d378291U,
  0x3dba9c83bd121a74U, 0x3d8a42b23e4f7f61U, 0x3d4cedb03e58b63bU, 0x3dbbfaff3d6bdb6bU,
  0xbc89a0f33dc2cedfU, 0xbcb9b033bddd7d41U, 0x3dfdeb72bcaf7878U, 0x3c05f2ba3e18284fU,
  0xbe297dd73c3c4b7fU, 0xbd613066bdf034adU, 0xbd0073c6bdc192f7U, 0x3d9c8d5d3d726fc9U,
  0xbc5913553dda33acU, 0xbe146f39bd94533cU, 0xbd9283273c91b82bU, 0x3d7ee8e7bdf10918U,
  0xbe1f1495bd912ef7U, 0x3d86c7dcbcd018bdU, 0x3de0824b3d3e870fU, 0x3e3672d9bcbacb55U,
  0xbd92bf103c10ccb9U, 0x3dd3b11abe8ad562U, 0xbce57da3be7eecb9U, 0xbccfa97d3ca2f8e2U,
  0x3dc3e7c73dad26a9U, 0x3e3902d13de6389eU, 0x3d700e8b3c450c52U, 0x3cebe266bc9779abU,
  0x3c85a797bd8cd705U, 0xbdcfc4dabe4e8535U, 0xbd83b74d3d357b59U, 0x3dc994f0bd875d51U,
  0x3d9ac2903da1e029U, 0xbd8041ce3b3f80c0U, 0xbd787bf63d376fa0U, 0x3e1f32663d319355U,
  0x3dd42c6b3df4f381U, 0x3b3c816fbde60faaU, 0xbd8bd0d4bce8b492U, 0xbc9d23dcba87fa16U,
  0xbc25f2a43e03e3c6U, 0x3d86d3373e0204b6U, 0xbc95b3923d8ef7cbU, 0x3dad18cbbcf530d7U,
  0x3d9545903e528524U, 0x3b986254bd2d57f2U, 0x3e00071bbea39483U, 0x3d150fadbb2ba6d5U,
  0xbd01a2883deea202U, 0x3e443814bd4e2feaU, 0x3dce0f22bde0bc2dU, 0xbe22fe8e3e232c2aU,
  0x3e2a6fb53e04c00fU, 0xbd48ae7d3d28ef1aU, 0x3dc931e9bc9a6a2cU, 0x3dbab1a4bbd446d5U,
  0xbe308fc33dea75eaU, 0x3d14024b3e92a3c9U, 0xbcd907bc3e7b2978U, 0x3dfe8b3fbc06e2d8U,
  0x3dadd33bbe1d7634U, 0x3d571a5fbcc36419U, 0x3d9da4d3bd932e07U, 0xbd6f084ebd9e6cf8U,
  0x3ccf0d6ebc88a933U, 0xbd4979153dc9c6d5U, 0xbdbc36dd3d5ae9b7U, 0x3e3902f6be904faeU,
  0xbe1a2fd9be323795U, 0xbd1d6d08bea717c4U, 0xbd76cd35be5e78bdU, 0x3b9c8e8abe6d10a3U,
  0xbe182cc93df51518U, 0xbe713092bd8c4870U, 0xbe8ff2c3bdc25fb7U, 0xbe6157d4be554fc2U,
  0xbbdbe1a03d21bb1aU, 0xbe2ade6dbd897150U, 0xbe76abd7bc9cd10eU, 0xbdeff81bbbcf08bbU,
  0x3d6476b2bd920f75U, 0xbe1e65bc3c99275cU, 0xbdcdf1d5bdb766feU, 0xbda3617abe65db68U,
  0x3cdced03be40a96eU, 0xbe2a7ad53e06d589U, 0xbe3110553e086647U, 0xbe62ccf0beb222f2U,
  0xbd89db76be3d6e1bU, 0xbe99c06d3ded188bU, 0xbde5a8993e1b20a7U, 0x3f334cf83e27d6e6U,
  0xbe1d7bad3e6d9bcaU, 0xbd86094bbe257aa1U, 0x3d267512be5867aaU, 0x3df175033d8487aeU,
  0x3d09374a3c1f00a9U, 0xbcf47211bdda514bU, 0x3ddd5f513c3815f8U, 0xbd7c2379be37d05cU,
  0xbcfa55ee3d4e18b4U, 0xbd2b6e73be1e898cU, 0xbc51337cbe1b87d6U, 0x3e257aed3dd1daceU,
  0x3e12926c3d13f467U, 0xbd6b6f58bdf8f995U, 0xbd8a57efbece3a64U, 0xbdd137b33ab6c7a5U,
  0x3dddb5a7bd629c8eU, 0xbcb4324cbe05060dU, 0xbdd16817bea018feU, 0xbdfad7ddbd82f6c9U,
  0xbd8a40ae3df37489U, 0xbde33aeebd5100c0U, 0xbcc38c35bc01551eU, 0x3f1b0fccbe00d25bU,
  0x3bd963bc3e05a8b0U, 0x3d1cb567be87cd6cU, 0x3e6979fcbe12bc1bU, 0x3e2dc7303e0d66d2U,
  0x3e52a8b63e5baa12U, 0x3d9c4ee0bdbe6c0eU, 0x3def3d3cbd19b54eU, 0xbd5533c33e5a7e5fU,
  0x3d0257423d262099U, 0x3e1e4e61bccd20c7U, 0x3ac734673cd8bbebU, 0x3e8bc6b03c5ef4f2U,
  0x3e2dec703e27f6bdU, 0x3c1d1faa39dd9fe2U, 0x3d43b5c1bd105e28U, 0xbd51784abe00cc7bU,
  0x3be0af133e04e3acU, 0xbdddb813be696d70U, 0xbe32f53dbe6fbc73U, 0xbe248176be2bc1e9U,
  0x3d903100bd94541cU, 0xbd5178233d21eb52U, 0x3d9ebe9d3c2ed91eU, 0x3ebfdb623eafafeeU,
  0xbd9acae63da1741aU, 0x3dd0bf6fbc78c56dU, 0x3dc1cfbbbdcf2c3dU, 0x3e82f99ebe060a0fU,
  0x3e99a8633d4ab48fU, 0x3d269f5e3c9c5d42U, 0x3dbb757abdb7eec8U, 0xbd8be034be54d91eU,
  0x3dd47878bcd46edcU, 0x3d31fdf53daa8bb6U, 0x3c6fc3ce3d9235cfU, 0x3e1f298a3e0aa324U,
  0xbcebba133e62224eU, 0x3e355c8bbd9f7769U, 0x3dce7446be3c9391U, 0xbd8572873e0876e2U,
  0x3e2de66c3c6c31a1U, 0x3dbb084d3c61fe0dU, 0xbcfa77b9be023a2aU, 0xbdd39bf9bdcadd42U,
  0x3ddd075abd8aa0deU, 0x3dd33b64bc8f503eU, 0x3e1761103d4ee8f5U, 0x3f07a7a03e49cf59U,
  0x3d768eba3cecc5c9U, 0xbd039720be2640eaU, 0x3da6242fbe1351e2U, 0x3d3a84a03d564461U,
  0x3eaec6ac3e4d4e81U, 0xbd3b71903ccf11f4U, 0x3c92c4afbdc871b9U, 0xbc9042abbd962e0bU,
  0x3e34c55c3dbe6d2aU, 0x3c2d2919bd1b0348U, 0x3dc384ed3d9ea9ffU, 0x3d806e2a3e1b0eceU,
  0x3d631b353e3e0e75U, 0x3c8fb7a93da41237U, 0x3e0ff31b3e4db71cU, 0x3dbe8307bd235f02U,
  0x3dc8ecbebc05924eU, 0x3d1ed732bd905daeU, 0xbe2ea82e3d80ab6eU, 0xbc86e58abe31bf91U,
  0xbd19073a3e88029fU, 0xbd1bd4e93e1e0e1cU, 0x3e93cdbd3e37c90cU, 0x3f0b5abe3e83166aU,
  0x3d9ad6783e690080U, 0x3dcfede23d3c442bU, 0x3e1f24ddbea73738U, 0x3d492a353e5e9e0dU,
  0x3e87a5c93db1755bU, 0xbd92b829bd80168cU, 0xbd3289e7bb8fd4b4U, 0xbe22f8c03c69fd34U,
  0x3e3cfb173da06bfeU, 0xbc90ba933e2e6024U, 0x3e1734ec3d8fbce4U, 0x3e07a946bdbdaeb9U,
  0x3de6a8e6bdc5e06dU, 0x3d9330433e837590U, 0x3b1fddc13e501c34U, 0x3cbd43d1bd0d1771U,
  0x3c1199b63d7060ccU, 0xbe0d05f73e155f36U, 0xbe8bd0793c2e3531U, 0xbd9001c3be51f2a8U,
  0x3aa89a0fbc948e41U, 0x3bbf12f83e114659U, 0x3dbdbdb23d9a1457U, 0x3f2ab05d3e169d01U,
  0xbc9661c6be0a5c2bU, 0xbd47111a3e1e22e4U, 0xbe3bc4903e70bc83U, 0x3c89c7adbc1d9df0U,
  0xbe7bc9a3be503fe8U, 0xbddcee173da57f6bU, 0xbe09d40e3e0439c6U, 0x3b15fdf3bd5057b6U,
  0xbdacbc56bd36646eU, 0xbe1ef1553dc9d50eU, 0xbdaa37af3e3520b1U, 0xbd3b2cf8bd1dbe62U,
  0x3d257012bde962faU, 0x3b832c013ed5dbc4U, 0xbd96c5043ec487cbU, 0x3e012145bd8153d7U,
  0xbd0ebff2bdcce2feU, 0xbe2b35b63eb5e478U, 0x3d72169c3ea9afceU, 0x3d578f8bbd9042deU,
  0x3dc70b76bd5a8808U, 0xbca25b25bccba102U, 0xbcc543b2bd27ada2U, 0xbd98cfddbc082897U,
  0xbd71a8b23d4aaae7U, 0xbcddf0653da4b5bcU, 0xbd8cbf7b3e4f857aU, 0x3c5f545bbd26470dU,
  0x3c9be2d3be0aac50U, 0xbe51fe733d8ebd22U, 0x3d2f6ae43e4ee8c4U, 0xbdd930a33d9d121dU,
  0xbdc7e7cc3d829023U, 0xbdb2bce23de2dbbeU, 0xbd189d4c3c9b58e3U, 0xbd27a2d73df0f706U,
  0xbd99bdde3d0a00b2U, 0xbb66fa2d3d83e266U, 0xbcf8acbc3e4ed796U, 0xbd5021883d442772U,
  0xbdbc58e23c063e4dU, 0xbd9cd559bc63d35eU, 0xbe1f9ee23d9794a3U, 0xbd6c2897be1a45ddU,
  0x3d88e31bbdd76b5aU, 0xbd370ad8bc55e3d6U, 0x3d1bf094bd417cedU, 0xbd089932be195046U,
  0xbd2b163dbd9553c3U, 0xbdbed0743d9cf6ecU, 0x3d7e2c533deed11bU, 0xbe0c3eb0bdea5857U,
  0x3cf8a9e33d52f2a2U, 0xbe1130dcbd74bf82U, 0xbe4fdfd23d86df08U, 0x3dc554f1be0a9918U,
  0xbe5867a53d63ded6U, 0x3d4ab0753d91dd2bU, 0x3d89e64c3d5f29c4U, 0x3d08d859bbc92143U,
  0x3c0bca0d3b580cc4U, 0xbdd90a73bdd3eab5U, 0xbd910568bd262ac4U, 0xbc2cdcdb3d477d01U,
  0xbdc02c73bd137472U, 0x3d081a733d9d924cU, 0xbd12ca53bcf0f93fU, 0x3de5803f3e08ac75U,
  0xbd59e7de3e0c13a8U, 0x3c7bb1a7bd57e8f1U, 0x3da4b678bd2d5209U, 0x3d530acd3d12217bU,
  0xbc475c08be126919U, 0xbd89a8d23e2317a7U, 0x3d3a65383e0d1350U, 0x3d1efeda3d57795eU,
  0x3e267cf43c800336U, 0xbd94edfa3e48fefeU, 0x3d1d5d6b3db09b66U, 0x3d97e0ff3cd5e4b4U,
  0x3d98d5e7bd3fbb3aU, 0x3d2130413dfc1ac1U, 0xbcbef4523decc3d8U, 0xbdaa7dd73d8f0777U,
  0x3e01b7e7bd490e74U, 0x3dfca2923cdec656U, 0xbd4e521fbe266d37U, 0xbdb5015bbe0a345cU,
  0xbc2b2246bdc4e212U, 0xbc5189d53e0d5a93U, 0x3d5592433e0d01deU, 0x3d2f58eabddff6d0U,
  0xbc812362bcef496eU, 0xbe1d2bdabd096c2eU, 0x3b948e6dbd1fbe01U, 0xbd591d84bdb10e42U,
  0x3d89b317be0132f4U, 0x3dfb60b4bd4cbee8U, 0xbce56101bcb3e42fU, 0x3de30d6c3cfa734eU,
  0x3d0e31f43d2b39c5U, 0xbd828aff3db8b2ebU, 0x3e5509263ca7f830U, 0xbd3d1ea5bcc50a3aU,
  0xbd5cdbb73da9cea7U, 0x3de3eb3c3d32f8c7U, 0xbc96a8d43d7234ccU, 0xbdd69febbd42fae8U,
  0xbd1110393d0a29aaU, 0xbd8d369abe08b98dU, 0x3d029bc43df26febU, 0xbd81ad18bd9bae64U,
  0x3ccc7634bdff8217U, 0x3b6162323e5396caU, 0xba96538e3e1b32e6U, 0xbd82adc3bdb7fc72U,
  0xbdaa072fbd06cb3dU, 0x3e112c3b3c916e3dU, 0xbcb507e13aef4b8bU, 0x3cb458cbbd9df524U,
  0x3cff43123e045e9fU, 0x3e8822d3be270dc9U, 0xbd58270cbdf66fe6U, 0x3e572a493e546b25U,
  0x3ca492923d4bde76U, 0x3e81865bbea55563U, 0x3e125d6abe5c348aU, 0xbc96e5dbbd3bf69eU,
  0x3ebb9b02bdd372dfU, 0x3cd2f4e2be3ec5b2U, 0xbd5f9953bdb6db22U, 0xbc46b07a3d0d51ddU,
  0xbd1ee9f9bdb9e1eaU, 0x3db61180bd8bf5eeU, 0x3d1e0bbd3daeed63U, 0xbda1d3e33c9dfc7fU,
  0x3d95e2a4bdd3e685U, 0x3e0f7e3f3ddfa9d3U, 0x3e60ac733ce54ec8U, 0xbe19c0a23b77956bU,
  0x3ddca15b3caedb5dU, 0x3cd73edfbcf3b6e1U, 0x3d2855ffbdd2e4d7U, 0x3b9455c5bd983cf3U,
  0xbd15da8e3db86d6bU, 0x3e467bb9bd2d0a20U, 0x3e7b4f4f3e33afc1U, 0x3e0882febcbbd6e4U,
  0x3db66e4b3e8d9a3eU, 0x3d1a1959bd7953c7U, 0x3df9a599bd7cea38U, 0x3ce1d0cd3d893c08U,
  0xbe0d71bb3d7b4587U, 0x3dcb97f1ba643b9cU, 0x3e18abd7bdc41e8cU, 0x3e4125a8bd34e3e0U,
  0x3d4073153e7dd7c4U, 0xbd6cb0ea3e8c5d84U, 0xbe0a11c13ec5a269U, 0x3e39f2393d741a14U,
  0x3e0103b23e7cf741U, 0xbd7ca4493e83bc9aU, 0x3da6af533e2a8656U, 0xbe342b163d5f0eb2U,
  0x3e149f6c3e027258U, 0xbda5b38e3d497926U, 0xbd7044ebbd8ca78cU, 0x3ec133eb3e73d6b8U,
  0xbde20af83e8250ddU, 0xbdb41b54bc7c9ab8U, 0xbd3039003d55b7faU, 0x3e7eeb53be41919aU,
  0xbdc129c23e6bf19eU, 0x3d73a258be035414U, 0x3e153687bdc10dcdU, 0xbda81917be9c2a21U,
  0x3bf894c83b8dcbccU, 0xbe8ccd8dbd4cd791U, 0xbd649b5abd297f2dU, 0xbbce0ca6be8378d6U,
  0x3d3348d3bd8c0570U, 0xbe0fe4273e8af911U, 0xbe243d813e982279U, 0xbde4fa7abe921871U,
  0x3dbb89fd3d838326U, 0xbe22f3533d2caef2U, 0xbde985e3be43fd6dU, 0xbe2e9f7ebc5815a9U,
  0xbc583f02bdc1bca4U, 0xbd55702c3daa56ebU, 0x3def4d9b3ddba6beU, 0x3ddfdeba3d3c9666U,
  0xbcdfb4143d0aa86bU, 0x3ce3552dbc9e11efU, 0xbe415e11bdb28010U, 0x3e0e78153d1a765eU,
  0xbe05a8b2bcd47242U, 0x3e2f8850bc779e52U, 0xbd25110dbc898077U, 0xbdfffc2abe50654bU,
  0xbd5516973d0f5142U, 0x3e09f51ebe0b23c8U, 0xbdfe7ce8bde55088U, 0xbd235753be1de710U,
  0x3d4f53823db2c136U, 0x3c5712f83e370662U, 0xbe29cefd3d0d42c4U, 0xbe5680cdbe741730U,
  0xbcf7bd8ebdfdac01U, 0xbe04da7fbdf2bce6U, 0xbeab0c3cbda8ac8fU, 0xbdccedecbe132437U,
  0xbe2046c3bd0ccd18U, 0x3d8d67bebd0f38a6U, 0xbdbbf7fb3d434b68U, 0x3dbc4e393dc720edU,
  0xbd3657d1bdf6db07U, 0xbe6cc760bd9f6bd4U, 0xbe091ebebe3de8ddU, 0x3dfc2246be5f3142U,
  0xbe7b0e563cd2ba63U, 0x3db429f73cd34b1aU, 0x3dbf84783e393561U, 0x3c734ac0be22e560U,
  0xbe2822163e159bffU, 0xbc9990423ce69fc9U, 0x3e1a3eb9bd0f198aU, 0x3da55a693db936f2U,
  0xbcf7b0e83cf0bcc4U, 0x3cdd6a67bdc49e8bU, 0xbd721e3ebe1e05e7U, 0xbdc24b2bb8e24971U,
  0x3d3d55b2bdd301d5U, 0xbe0fa8cc3dc4dd9fU, 0xbe9a69003c8f31eaU, 0xbe47675cbe238e7cU,
  0xbe438f8bbdb8c7bfU, 0x3db445b8bc8f0e89U, 0x3e13ad093dcd43d4U, 0x3eb4feb33dca17f9U,
  0xbe049ba23de399a8U, 0x3daa941bbe92c63eU, 0x3c0f78b2bf045b93U, 0x3e2bd9873d1354a4U,
  0xbdd03109bcdbb85aU, 0x3dd7396c3d2d35aeU, 0xbd2b75ddbccefe2eU, 0x3d44494b3dcc1608U,
  0x3e09184a3e31a3f9U, 0xbd0bbe18be089efcU, 0x3e5c46853dab4f79U, 0xbd1980e9bbfb1772U,
  0x3debd4963e4b2c7cU, 0xbda9ce15ba2d9552U, 0xbd9185d6bd739e10U, 0x3e0fbd1abc5a93f5U,
  0x3daa7a393e124fb1U, 0xbe0308873d7c6dfbU, 0xbe85eba1bd39e0e9U, 0xbc7b7b0bbd831fb2U,
  0xbd9b186a3e760e29U, 0x3d12858ebc5605a7U, 0x3d233ac03e09ac95U, 0x3e8887b83ea00602U,
  0xbb6efa493e92e694U, 0x3dbcd48ebef6a5d1U, 0x3ea1c659bec5a487U, 0x3e9d2f9a3d906bfcU,
  0x3e6ad13d3e1aebaaU, 0x3deace4dbd72597fU, 0x3e307f7abe294667U, 0xbe2a8119bd85154fU,
  0x3e554c983e17bccaU, 0x3d7c4d2a3e126ec5U, 0x3d4f39133e646bbbU, 0x3cd60bfcbcbab55aU,
  0x3d5520273dece517U, 0x3e1135a63e8a20d5U, 0x3e108c243e9033a2U, 0x3d1bcc133e52e0f1U,
  0x3d87d48b3ba34b88U, 0x3d4927f1bd8173d3U, 0x3c5edfaabe008875U, 0xbe19eb29be6c31f0U,
  0xbdd3d6fb3d865962U, 0x3e29a3223d918064U, 0x3d36b1a43dce0fe9U, 0x3ea7d47d3d0044e7U,
  0xbc59c280bc94a0d4U, 0xbd5b72063e34216fU, 0xbd87f2d83d8a787fU, 0xbd8cf7473c9892b0U,
  0xbca0648b3df024ffU, 0x3d6cc4a43d66552bU, 0x3df045013e0b4cbdU, 0xbc155cbb3c94095dU,
  0x3e553e8dbe2ebcbdU, 0xbd6b28b13c7cd0a5U, 0x3cc5e8fbbe378852U, 0x3c2d01e1bcd2baa8U,
  0xbe25c2a33c2c4f49U, 0xbd2c5dfa3da9a362U, 0xbda0b1fdbc87aa32U, 0x3d5cafd7be25ebddU,
  0xbd8e38a33d3b46baU, 0x3ceccce1bed57d6dU, 0xbe14038abefc3048U, 0x3a8315edbe289933U,
  0xbd9947b33c857a4aU, 0x3d49b6c83ce0dfe9U, 0x3e078dba3db93378U, 0xbe9c4b79bde9e449U,
  0x3d5481ccbb5aba1fU, 0x3e1a94dcbe4c851dU, 0xbca7bee1be42f487U, 0xbe1b2d033da02a5fU,
  0x3cbfa2fbbbd630f1U, 0x3d48dcc93c9f3111U, 0x3e0415b63d690218U, 0x3cf87f72bd7f0bafU,
  0x3e118f65ba6c255cU, 0xbc88ddc0bd7f8e4eU, 0x3d470c80bd6e5183U, 0x3d5684e33dad1f45U,
  0xbd1390b9bd3779c0U, 0x3e0fc23fbe5a1b93U, 0x3dc1039cbd5360e6U, 0x3be4d5c63d85fa05U,
  0xbd9d86f93dd372c5U, 0xbd6f7494be4c360cU, 0xbe38536abe357be7U, 0x3e0d9cb43d04eb35U,
  0xbe812f90bd59cbf0U, 0x3d42011a3d65adcaU, 0x3df1bbe13d079f66U, 0xbdfcd7323bb5da60U,
  0x3c1984733c23838eU, 0xbc2633e6be056957U, 0x3de98f25bc8f854aU, 0xbd6953d6bdea47fbU,
  0xbd8d3e8d3deba73aU, 0x3db0ed483d915244U, 0xbde19299be1f5b1fU, 0x3deeffcbbd92ab7aU,
  0x3dd7d444bd955ae0U, 0xbd4e6c90bde1d675U, 0xbd583126bdbcb30dU, 0x3ddaec453d836a80U,
  0xbd36e63c39b1a9a6U, 0x3cad733fbe522b5dU, 0xbd8321dfbe041ea3U, 0x3d87c8083d8d6ec7U,
  0x3de856923ce8ad6eU, 0xbd608a82bd8a4ba0U, 0x3d995743bdbe00f9U, 0xbd1cbc74bd32c192U,
  0xbe0c079dbc06f5e7U, 0x3d88d39f3bdbb826U, 0xbdc874843d3748cbU, 0x3cc4ee12ba677e38U,
  0xbd43a3b93e091b6dU, 0xbce86daa3d832d38U, 0x3db6aaeebe2575ddU, 0x3cf5b8f33c805552U,
  0x38e9a06b3df48f3fU, 0x3e0daa34bc2e6c65U, 0x3d187e553d969cdfU, 0x3e2d22bb3e0c2f2eU,
  0xbd9349f4bdd1d42dU, 0xbc2302a83de7d150U, 0xbbbf34dcbceb39cbU, 0xbc003de8bc9bab46U,
  0x3ce8e46a3c94d473U, 0x3d67832fbe23d1afU, 0xbe1d52ddbe3270fcU, 0xbd8b293c3c474d75U,
  0x3e0df894be137024U, 0xbc1ed2d53d868e6dU, 0xbd72253dbdba50d2U, 0xbdcbb4fabe3f8a08U,
  0x3d7fff3a3d00e0d4U, 0x3cbf218e3dac2013U, 0xbe0e9572bcde4a17U, 0xbd9e4a16be047896U,
  0x3d097c823d639723U, 0xbcd519e53e0957b7U, 0xbe4fe8e6bde4b9fcU, 0xbdf08815bc977731U,
  0xbd078cd4bdace63aU, 0x3dd491e53bab6063U, 0x3e6685103d3b512aU, 0xbc490d193df8b8b1U,
  0x3e1bc9ccbd856140U, 0x3d7b03ed3dd0e079U, 0x3d2e5a9dbcb097cbU, 0x3d7976443d69b92cU,
  0xbd7d447f3ce3ee33U, 0xbbc23bb23db48d66U, 0xbdc53be43d0961e7U, 0xbd8fd2193e28f840U,
  0x3e28d2723bfe2febU, 0x3dd22262bde5531cU, 0x3c8fe09abdc9b097U, 0xbdfe22e63da67ca8U,
  0x3c20b4253cced1abU, 0xbdeb88b63ccccee8U, 0xbe2338f23cf5faf9U, 0xbdc832f8be712a81U,
  0x3deb3811bd6cfd5dU, 0xbedb25723dc9c997U, 0xbeaac3c43d2e8d55U, 0xbe90e4983daabe45U,
  0xbdb567aa3d8bfa94U, 0xbceb425b3d1ee62aU, 0x3d4577243c5a6805U, 0xbdf1b519bb6c44c5U,
  0x3decedc6bde87a83U, 0xbebc7c6d3ddab3dcU, 0xbec5c3cfbd2edcf2U, 0xbeab2d10be256aa9U,
  0xbd844ceebd704099U, 0xbe333198bd4358c2U, 0xbc9ccab93db7ef88U, 0x3e02fd96be640959U,
  0x3d8a6550bcd81c94U, 0xbea19e1d3d1b2cc9U, 0xbe99eed9be43e549U, 0xbea1e931bea68ff3U,
  0xbc553f42be60c580U, 0xbe818c413d5f86d5U, 0xbe3e21bd3cc8aba6U, 0xbdeef3f2be8bd582U,
  0xbd69a9573d32b971U, 0xbdc17c2ebea217d8U, 0xbe401779be28c8aeU, 0xbdc5e1a6bd398864U,
  0xbde8d0b83c1fb4ddU, 0xbe73db02bdfdf50dU, 0xbdab0598bc49e65aU, 0x3b99cc93be4246b2U,
  0xbe79c1dabd73c0a7U, 0xbe45029ebdd60e46U, 0xbe6110bebd560fdbU, 0x3a4a31b7bdf0b83eU,
  0xbda6c3ffbe204040U, 0xbe564d673dc7f0d6U, 0xbdeaf7103db1331dU, 0x3b5885bcbdcc2c03U,
  0xbcaa0e083db35fbdU, 0xbcf23a213e0d8a96U, 0x3d4c13893e313a17U, 0x3e3ddb7f3cdd61d6U,
  0xbdf52cb13dde8caeU, 0xbcd7a4f13c527509U, 0xbcac25183d7129f9U, 0x3e0a1cdbbd8a4e27U,
  0x3d232e1ebdb7b282U, 0xbe11ee21be70656cU, 0xbe2574dfbe6105a3U, 0xbe8b4646be38afbcU,
  0xbdfdcf9ebcf9013bU, 0xbdf1f9183e46cb4eU, 0xbe74eb6f3e50c609U, 0x3c7c28ffbce66224U,
  0xbdf920ccbddb4c23U, 0xbea51dfb3d575457U, 0xbd1868233e00f05aU, 0xbd08118cbdfd0602U,
  0xbd529a76bc65c345U, 0xbe26f4d3bcc5160dU, 0x3c45c0503cb347a6U, 0xbde1d580be21bbafU,
  0x3c8d56b6bdfba70aU, 0xbe1275803cbebb6eU, 0xbe56b2483d9b5c66U, 0xbd7b71febe1f8a16U,
  0xbe1cc1f03c81d314U, 0xbdcd3ce2bb4568bcU, 0x3c8cd8c5bb2c98efU, 0x3d7e58febe665a57U,
  0xbd677a80bd3a555dU, 0xba988c76be2a24a3U, 0xbd8a43c2be15fe69U, 0x3d160d853d6b6bf5U,
  0xbe0260b63d10718fU, 0x3dc8c4523de0481dU, 0x3d34e2633e36be96U, 0x3df426353d107a22U,
  0xbe14d9b4bd0187b5U, 0xbc6898c83d0c3a76U, 0x3d5e541a3e23fd26U, 0x3da84d7b3dbe3c9bU,
  0x3de8c0993c192f0dU, 0xbcec31c43db83dd3U, 0xbd94bd033d0dfbf2U, 0x3ca8eb5cbdcc6c5bU,
  0xbacaa7d4bda7ff8fU, 0xbd3657303e6b68fcU, 0xbe3e57b83e16c714U, 0xbd44010c3d71c11fU,
  0xbe6398edbcab1a34U, 0xbd2802fb3bf30ebcU, 0x3c6dde243a83758bU, 0xbd25a979bd2784f0U,
  0xb98e24743c748f5aU, 0x3d2bad1fbd499ed7U, 0x3d06042abe1437aeU, 0x3c9eb50c3cb6e15eU,
  0x3c8a42053d89a03aU, 0x3d997861bddcf603U, 0x3cdcc8293e27ef8fU, 0x3dbd58353e0b40e2U,
  0x3e85b37a3cb63c4aU, 0x3e240999be5b327eU, 0x3e0bfd7abddf7535U, 0x3d839091bd2a10d9U,
  0x3e0eed9a3da6f43eU, 0x3d7d4ee5bdb57fddU, 0xbd9f2c7abdbdb31fU, 0xbb4a1ec73d4f96d7U,
  0x3a36ed5e3de8fd39U, 0x3d5aac13bdca556eU, 0x3e2675243d34cb90U, 0x3d67b3de3dc34ed8U,
  0xbdabb5da3ceef68aU, 0x3dc1af033cb252f9U, 0x3d09be62bcba6d38U, 0x3dbce8003e3cabf3U,
  0x3e0dd97c3d6198adU, 0x3dbd9d69be146fe7U, 0xbd757e813b97e707U, 0x3e14737fbd36bd4fU,
  0xbd9109debc72516aU, 0x3d0b0aafbe8b652cU, 0x3df6c8cabe7db3a4U, 0x3c21df273d9030b1U,
  0x3e953cba3ca9e54bU, 0xbd95be05bde6cb3dU, 0xbd08d9f5be1c90eeU, 0xbd56ef79bd275aa2U,
  0x3db4ec20bc21cd6cU, 0xbdd397c8bd0152ccU, 0xbd43d6bd3e3da3e8U, 0xbcc6cbcd3d43ed7cU,
  0x3df86f303d5fb996U, 0xbd44dab43e448703U, 0x3ddf6e903d3b245bU, 0x3dad7fbebdabaea1U,
  0x3de48d333de49f85U, 0x3d0662963b8e66f4U, 0xbdb4e81b3cd99d19U, 0x3c9d31b5be0fa91bU,
  0x3e1afd273d5ca615U, 0xbd8a0a59bd805394U, 0xbea0f310bd515549U, 0xbcf78351bd7347a8U,
  0x3cc6dd62bd440883U, 0x3ded4cedbe8ccc4eU, 0x3d8f49d0be93c368U, 0xbe3368c03d9556a7U,
  0x3e076fb5bd92ab43U, 0xbe2b493bbe44a164U, 0xbe4c5f97be40dd96U, 0xbe54e81ebdd036b0U,
  0xbd84ce76be25796dU, 0xbdfcd4803c1b1985U, 0xbd9164a53e3433f8U, 0x3dbc76c4bea3e43cU,
  0x3dbcf5b1be9507f8U, 0xbed9049f3e459030U, 0xbe964fbdbd9ccb59U, 0xbe1a6fedbf3c717aU,
  0x3e0c26dabf085fe0U, 0xbf1f8b4b3d33742cU, 0xbe03ca3f3c25c95dU, 0xbd717e60bf0d5db1U,
  0x3d9294be3d46b6f9U, 0x3cfc2a43be42077aU, 0x3d830aa9be4ef5cfU, 0xbdeb02113bd7c064U,
  0xbd5c273d3dbd06fcU, 0xbd960f853cea7ef0U, 0xbdddf11b3c22d6fcU, 0xbdcc702fbc94db59U,
  0xbe69aa79bddbdafdU, 0xbe0cb6543de9e7c5U, 0xbe0104103d7cb15cU, 0xbde7cf1ebe03fe2aU,
  0xbdfa7f6fbe198d36U, 0xbcfd78543e3f6aa4U, 0xbb69c9e63da33409U, 0xbda9b616bdc78650U,
  0x3a649b73bde877cbU, 0xbe329d603a85d5bcU, 0xbe28159b3dae9a33U, 0x3d96456cbe1abfafU,
  0xbe0c128fbe346d55U, 0xbe3dde123d1e11b8U, 0xbe29d4113cec6a7fU, 0xbc2d5618be1900eaU,
  0xbd25edccbd98279dU, 0x3daa9d57be873534U, 0xbdf6154fbe9802cfU, 0xbd2d75083db3e187U,
  0x3d2e00833e03a37cU, 0x3d846ad33d5aef85U, 0x3c3e0e243e36c2a5U, 0xbde3127abde3c361U,
  0x3af0af53bd936c3dU, 0x3e230fbe3d80a9fdU, 0xbd0f329ebd808287U, 0x3d0ba2f63cde08c1U,
  0xbde7ffbfbd6006beU, 0x3d9021a0be58de42U, 0xbd144ddbbe3a4eb0U, 0xbda0628b3d106df5U,
  0xbd1f5dbebd2cf4f7U, 0xbc873db6bd08db67U, 0xbcafeae03c0403dfU, 0xbd8459d83c7a43f2U,
  0xbcfba43cbdb6778fU, 0xbd9edcd9bdf23a47U, 0x3d0bde4c3c185948U, 0xbd19c3b83d1b0a8fU,
  0xbe0f17333cf833bbU, 0x3c893958bd9942a0U, 0x3d20d732bd9011e8U, 0xbda0d6c93ddd7b12U,
  0x3ddbc1ed3e18b9daU, 0xbd82e20dbe02b12cU, 0x3d8fe0d43c8df771U, 0x3d382370bdcf939bU,
  0xbcafefdcbdcd1053U, 0x3dabaa953dea83c1U, 0x3e205cefbd8f30b7U, 0x3d9bf6223dc3ebc7U,
  0x3dfe86973ce561c1U, 0x3e11cea3be2c4d37U, 0xbd9c4fe8be16d607U, 0xbd03056d3dc746e7U,
  0x3db2bde6bd808fe9U, 0xbde0beaa3d93c336U, 0x3dee3b89bd60c6c0U, 0xbd0c94c53de20a1fU,
  0x3df970093e25566fU, 0x3e0700bfbd99fab2U, 0x3d38e3f33d9bcb21U, 0x3dd19501bca29b7fU,
  0xbdf9ae483dbf6143U, 0xbddcdc87bd907804U, 0x3e25667d3c5a20e0U, 0x3dfd71c43d5e933dU,
  0x3db4ed9f3dbd0778U, 0x3e0f4789bd1fe6deU, 0x3d014a87bd6fd3b0U, 0x3cdeed3ebba52863U,
  0x3d438c323dafa726U, 0x3c80f5dcbe0dbbd5U, 0x3d7685bcbdd64f68U, 0x3c688cec3d36c780U,
  0x3dd2ac0abc9c982dU, 0xbd08e3c73d941cceU, 0xbdbb17723e02efeaU, 0x3d0b16653e1aa3f2U,
  0xbcc72f11bd32ab47U, 0xbc7921c93dfe8174U, 0x3d2d8c5fbc8f6cd1U, 0xbd86234c3df82a83U,
  0x3d5e527cbd166103U, 0x3e2fb2723dc50b69U, 0xbcc2a349bc90b97bU, 0xbcd8fea3bba2d3e2U,
  0xbd149ccfbd810283U, 0x3db665283da6b470U, 0x3d971d4dbddd9755U, 0xbdf5a73bbb7a057cU,
  0x3e1b4bae3c0c2fa0U, 0xbc41fb1abde2665bU, 0x3dfdd935be7b422fU, 0x3c328540bd437785U,
  0x3e354cdc3bca50d7U, 0x3da618403c740cefU, 0x3bf5efc8bdffcb91U, 0x3d49a5f8be47d2f5U,
  0x3cfe5a45bd8b4b41U, 0xbe00a3dc3d853e18U, 0x3ca16e303d39965bU, 0x3d011544bd456767U,
  0xbcab026abc5d9e08U, 0x3e1a7dd73a09cef6U, 0xbdf15021bc665a47U, 0xbd5dde1c3d85f46fU,
  0x3e18ad90be10bb50U, 0xbb5111dfbd38710dU, 0xbe8ebad0bd94af8dU, 0xbde2cefdbe989076U,
  0x3e22ad12bd3f2ba2U, 0xbe4fb527bd692019U, 0xbe2b858fbe50c7abU, 0xbd77ff07be3cca70U,
  0x3d018efd3d74a2f6U, 0xbe199ff4bddb4b74U, 0x3dc24cc9be7e02cfU, 0xbd8bc14b3dc94bc4U,
  0x3d2322e4bd7c7e82U, 0xbe22ea27bd1869eaU, 0xbe68ac84be1b5fe4U, 0xbdb856f0bc82666aU,
  0xbe2d800ebe5a8f88U, 0xbd2b3af33e1cd840U, 0xbd42facf3dc5378eU, 0xbddd8537be4c9006U,
  0x3d29af17be5f660cU, 0xbd4f59e6bb9a6d87U, 0xbe647c6bbddc7d06U, 0xbe080b7fbe81032cU,
  0x3e141526becb9998U, 0xbea3db11bd85a431U, 0xbe2428e23c6948afU, 0xbe1139b1be40ce93U,
  0x3d891a573da5f54aU, 0xbb6a74cbbe7b5f41U, 0x3e19b2f5bef1242eU, 0x3dd9dc693bf27bc0U,
  0x3e69adfd3de571f5U, 0x3d979ea5be760e00U, 0x3e2cdc78bd04f723U, 0x3bbda6273e254bd4U,
  0x3e828c753d173308U, 0x3d304082be4abadfU, 0x3dd1cb6f3c730e21U, 0x3ddf9bb83e18b847U,
  0x3e0f235c3d096ebfU, 0x3dfe6511be91b069U, 0xbcdd6fae3c8be780U, 0x3db643083e26252eU,
  0x3cf770e13d44cc14U, 0x3c71a541be9fce1fU, 0x3d8099c6bd1c2749U, 0xbcec5b8d3cffbb33U,
  0x3ca0106e3e1781e9U, 0x3db698b6bc1bb897U, 0x3b1cb96d3d315079U, 0x3e5716c63d8e2a0bU,
  0x3e3cd9263de4feb6U, 0x3e22f219be48f31aU, 0x3e6714dfbe93590aU, 0x3d6807e83d98e24aU,
  0x3db8d1c13daa5af2U, 0x3e0cdb7fbecf0712U, 0x3e0c7db1bebebd59U, 0x3d7729513d31f933U,
  0x3e7c1be83e50d9ccU, 0x3dcf6b4fbe491b80U, 0x3c702c6ebd2214e9U, 0x3e2552913d7b3a2aU,
  0x3de2dffb3d8969b6U, 0x3dcd3dcd3e94dba3U, 0x3cc446833dafb72aU, 0x3dda7c403e0d3ea5U,
  0x3d9cdd7a3d2588b0U, 0x3e4fd25c3d1c6b5dU, 0x3e21d977bdac68bdU, 0x3e3232fc3e0eea76U,
  0x3e21423e3d84232cU, 0x3db4d937bcc5e303U, 0x3e1014033d0b021aU, 0x3dbf062bbde6315bU,
  0x3d73664abd5d877eU, 0xbbca88d4be477473U, 0x3d3b6019beaed886U, 0x3d13c7e4bd1e1950U,
  0x3df294373de0e670U, 0xba826477bea737f7U, 0x3e60463fbe0945ecU, 0xbc978cb6bdb581e5U,
  0x3d321efb3e088628U, 0xbe4a0da13bd582fbU, 0xbe881ac43da8da02U, 0xbd400106bc8839a7U,
  0xbd96d865bd257444U, 0xbe6946a73ba1af5aU, 0xbe0fc1743e1df59eU, 0xbe3d4cadbe163684U,
  0x3d4b2243be0510deU, 0xbe26fc56bdc6bcc7U, 0xbe89576fbd413bc1U, 0xbb88ff79be91ec18U,
  0x3e3929d9bd9ba2d2U, 0xbdc17d37bd0186e1U, 0x3c7635cabc29a831U, 0x3d699654bed32886U,
  0x3db523ed3e43bb02U, 0xbef29814be448dedU, 0xbeb482f8bea86b83U, 0xbd89eb56be922592U,
  0xbd57eb803d280cd5U, 0xbe68b553bd13bb33U, 0xbe1ee2383c5538f7U, 0xbe595fdc3c763c07U,
  0x3d4cb37cbd099244U, 0xbd64c0453e35c07fU, 0xbdc7fcfe3dd460cbU, 0x3d14a1e4be338b96U,
  0xbea0ed68bdb972c8U, 0xbe099c16bd5d3f7cU, 0xbdf55d97bcff5b24U, 0xbdc8cd9fbd8d6789U,
  0xbd97544cbbd029dbU, 0xbeae4a70bdfdd5b1U, 0xbecc1f31bec1272bU, 0xbebe6d5cbee26cbcU,
  0x3d1dc976bec4a665U, 0xbe2a93103dd01520U, 0xbde4593ebcf0f89aU, 0x3daadff8bebe9182U,
  0x3cec7784be0191beU, 0xbe627cf5bd5d0f20U, 0xbeb8681cbe023052U, 0xbe964c73be9195fbU,
  0xbbad8fc1bdc13156U, 0xbdca51193d215162U, 0x3cbbdab63e585d45U, 0xbc97c6b2be471367U,
  0xbe8c1806bd97dfc9U, 0xbe3ee4693db91b33U, 0xbd0d67763ea528b3U, 0xbdb32a993d2c06f1U,
  0xbe1bd21dbde670ffU, 0xbe24133f3dd26ee2U, 0x3db972e0bd0c7022U, 0x3cef3bff3b5213f6U,
  0xbe01e279be74c5dcU, 0xbeaaccb0be519fb4U, 0xbedac46cbea50689U, 0xbebe2b69be8ad1e4U,
  0xbe9e35d6be76508aU, 0x3caa07ffbd99e800U, 0x3de1fd593ceef122U, 0x3e2a0878be04b22bU,
  0xbca47749bd6c51d6U, 0x3d4a60a3bc0cab70U, 0xbdfe07bebe8bd685U, 0xbe611ae73c1fcc04U,
  0xbed35fd0be0713c8U, 0xbe07c4b03ea107a7U, 0xbe0de3be3eb62f5fU, 0x3e0681823e0d234fU,
  0xbecc770e3d571806U, 0x3e522e4d3de1d2e7U, 0x3e3d53b43e8c4b6dU, 0x3d34817f3d0e3480U,
  0xbe903e693da2fc86U, 0xbd44cfc23db23cabU, 0xbda8fdc13d953ee7U, 0x3ddd60293dd5de74U,
  0xbe2d09033d8c10b1U, 0xbc624e9bbdd0fce5U, 0xbe1bcd58be2b890eU, 0xbe2cc94ebd445907U,
  0xbecbc75b3e50e2eeU, 0x3d2e03ee3ce8879fU, 0x3d8647d43ca4634fU, 0x3e396d163e43d1a7U,
  0x3d6357c6bd3cf4b8U, 0x3d49e44d3d097ddcU, 0x3dc11a11becb63dbU, 0xbc76092d3b7c0487U,
  0xbc623c7a3db9aeafU, 0xbc1f3791baa9b559U, 0x3dcef4b4bdc43bf3U, 0x3d905fa33da2ce35U,
  0x3eb3e4313e071f19U, 0xbd0c6056be379481U, 0xbd14a820bddcdc6eU, 0xbbb5e290bd718983U,
  0xbe2af89d3c15937aU, 0xbd8e75d9be0a7b3aU, 0xbc6be22fbe4048f3U, 0xbd1d49d0bdb1c4f5U,
  0x3d4fe942bc9d3e78U, 0xbe08b948beba81e4U, 0xbe28a2f9befc2077U, 0xbbdb959abd5262e9U,
  0xbe1906c9bdebd0d2U, 0x3c07c3a23ba0c87cU, 0xbd52e7b93db0ecdfU, 0xbd4e57b43b0b53b9U,
  0x3d58d4493cacef0dU, 0x3d409cdebe974c72U, 0x3e4c9171be699c80U, 0x3d7677373e28db51U,
  0x3e0db738bd4b2e11U, 0x3c2893b4be83d4b7U, 0x3e8faca0be93b2d5U, 0xbd4f37ebbad86e40U,
  0x3ef5c0ad3da282d2U, 0x3d01b2f7bd80ba19U, 0x3d5bb1d6bd7636baU, 0x3d9b5c453dab2197U,
  0xbd842366bd54aeacU, 0x3d3c72c6bcb56134U, 0x3df3cde6be53816dU, 0x3dd67f3c3dd0b7e6U,
  0x3c95635d3ddbff93U, 0x3e1d9e3bbeb48ffcU, 0xbb95d313be0e79d6U, 0x3d67203c3d87a245U,
  0xbdadb600bc8a7222U, 0x3d14a8083dce145aU, 0x3e120a13bbee86f3U, 0x3d50722abcd3c60bU,
  0x3c9c4b913d3fa782U, 0xbe0c37d1be4e8788U, 0x3e03c07cbe700e4aU, 0x3dcea8a83d6b6a54U,
  0x3db64be4bd7555afU, 0x3bcf7525be829b58U, 0x3d5fc3aebdee4ebdU, 0xbc76de643df64bc2U,
  0x3e134a1b3e1ae4b2U, 0xbb678dd7bd4199aeU, 0xbdc5a1a83d398b43U, 0x3e25ceffbdb5d756U,
  0xbc364b403cf3d835U, 0x3dc123973d29f614U, 0xbd98c6e9bdf0241aU, 0xbcb30e0f3ddabad5U,
  0xbc4a41c2bd46df0fU, 0x3da03be9be4af10fU, 0xbca31c7cbd9d2b0dU, 0x3cec11703dcbeb8fU,
  0x3d5c990e3df46ca1U, 0x3b886b0d3c8f37bdU, 0xb9bc40043d87f789U, 0x3d65be5cbe0acca3U,
  0x3e3602093e369582U, 0xbe00c181be86caf0U, 0xbca87477be874a9fU, 0xbc4538ec3d2888ccU,
  0x3c714c013e216069U, 0x3cea0119be883c77U, 0x3d8a4ac7be45f09aU, 0xbd4bc10ebb64e518U,
  0x3e1d46ffbdfe6e47U, 0xbdb6378f3c780e80U, 0xbe8ebb7c3cfeab56U, 0x3bdae15fbe0301baU,
  0xbe2c456cbdd75b4fU, 0xbcbe07263e2c40c6U, 0x3d890ee73dcb79f6U, 0x3d94c0c3bd7d89cbU,
  0x3e7b2a733b4e19a2U, 0xbdb7138cbe1035bbU, 0xbe4095e7bc94e93bU, 0xbca5a8c7be830be6U,
  0x3e45cb96be6c4aabU, 0xbe51702cbc7e7081U, 0xbd6e650f3cc4350bU, 0xbd89ab16bef2bdf3U,
  0x3e4d16433d7162c6U, 0xbe24f340bd5a76a6U, 0xbeca15aabe978f0dU, 0xbd28cf49bddc5fe0U,
  0xbd63d397be34f3dfU, 0x3e45210abd57f502U, 0xbce35622bda454f2U, 0xbe90f4883d4a0678U,
  0xbc9763d03d84ff21U, 0xbe3a28c43e550ddfU, 0xbe4f25423d540364U, 0xbd8e3d7ebe071aebU,
  0x3d030d8ebd0fb618U, 0xbe2461053dae7b27U, 0x3bef07ce3d66fc05U, 0xbd0c1540bdae0dc3U,
  0x3d9467a0bd8374f5U, 0xbdf242debdc95cd4U, 0xbe3864f5be09248dU, 0xbe55d14dbde64cabU,
  0x3e34ba9fbe8f40c3U, 0xbe3f99013d03dc59U, 0xbda5fa783d2063b2U, 0xbb9b484ebe673551U,
  0x3df15118bdf77ba2U, 0xbeccaf8e3dfa78e0U, 0xbeb1f9acbdaf4da7U, 0xbe97c881bd9cbf2bU,
  0xbe123736be168fcfU, 0xbd18c9da3d5652d0U, 0xbe584e2d3dbc9d86U, 0xbc84b5f63dc63b00U,
  0xbe11f13ebe0d66afU, 0xbdf44f243e3e685fU, 0xbae91dc63dd25c12U, 0xbda5ebfabd61b40aU,
  0xbe0e48803dc1ef45U, 0xbe15c0e23dbe8d13U, 0xbb8467b2be05edd1U, 0x3e462fedbd5d62c9U,
  0xbc907e36bd007cf9U, 0xbe06d2e0bdbb8f6cU, 0xbcfa0af63d0e057cU, 0xbe8ab036be0fd575U,
  0xbe19f8a7be0dda47U, 0x3d8606b53d5d8dffU, 0x3e0ea7ebbd837f91U, 0x3c4aef6bbde2b732U,
  0xbe2aee22bde5cdbeU, 0xbc391b153eb081c6U, 0x3d93e6ac3e704d2bU, 0x3dc20aa83de3a179U,
  0x3d0576b5bd8b7ca1U, 0x3e0ff16b3e1f1ae0U, 0x3e5d249b3da83af3U, 0xbd279f0cbb0acb13U,
  0x3e20c70cbda6bab6U, 0xbd5537353e44b650U, 0x3db9809a3e25d064U, 0x3de69405bc9351a9U,
  0x3cc4a1b8bc3d01bcU, 0xbd4e4723bce36ce7U, 0xbd8088e53e20ffcaU, 0x3d4115473d2f3dcdU,
  0x3d7a39993d8e081eU, 0x3e13c8e4bcb6cd17U, 0xbb984ce13e131924U, 0x3dce45ca3d955a3dU,
  0x3e56826e3df128eeU, 0xbc82bf57bd468411U, 0x3caf61b2bd3bf088U, 0xbe6b7829be23080aU,
  0x3ce1e9df3d6233c8U, 0x3c8e8edf3db671b6U, 0xbcf3a2353e2b7d0aU, 0xbc8404d7bc1140cbU,
  0x3e0787dbbd48ff6cU, 0xbc43c5ca3e5ecca9U, 0x3d95275c3cfc8670U, 0x3d1dc7cf3cfdc616U,
  0x3d4efc113d06e230U, 0xbe2f157a3e66116eU, 0xbe0074be3e08434cU, 0x3c8c4e17be06399dU,
  0x3d275fa83b17103dU, 0xbd37fea6ba161058U, 0xbcf605353d9e3ec9U, 0xbda90ed63da90af8U,
  0x3cae1b5f3ccab174U, 0xbd059d283e0274b9U, 0x3e1529ec3ddcf7f5U, 0x3e25b8123e02ff3aU,
  0x3e42b5fdbd5d2411U, 0xbd4d2230bd07498aU, 0xbe441d3abdd52c63U, 0xbe52a036be848d5fU,
  0xbe0b19cabd4c6670U, 0xbd17cd803e49b7cdU, 0xbd8ff3d23e640b47U, 0xbd984b6ebbff6229U,
  0x3e08f8f0bc511f1fU, 0x3d42a2b83deffc7cU, 0xbc660c6d3db89118U, 0xbcef8205be1dc8d9U,
  0xbd9e24683cb77737U, 0xbd8393b43df0249aU, 0xbc52d0dc3e007360U, 0xbd0f7a99bd92d189U,
  0xbd873018bd632b0dU, 0x3c052d6d3e6f1b7eU, 0x3d82dc033de7d0dcU, 0x3bc3d32ebd5b9510U,
  0x3d285ffdbcefac08U, 0xbd7c54bd3d10a6f5U, 0xbdb01c133dd1c805U, 0x3cac3e0cbc898f88U,
  0xbbf5cc5dbe282ee0U, 0xbdd5e2cf3d6e4239U, 0xbe2edc15bda41007U, 0xbe8de248be3b33d4U,
  0xbd8324003d7558eaU, 0xbb5ce40d3ebc8896U, 0xbbca5cdb3e352503U, 0xbde8b9d8bc56bb75U,
  0x3df5503d3db064d2U, 0xbd0d96b23ddbf232U, 0x3e14dc653e1e5b5bU, 0xbd025d5ebd8e4c71U,
  0xbcd65824bd960da3U, 0x3cf2787e3d886c6bU, 0x3dac30a83e27370cU, 0x3d613a303cca47a2U,
  0x3d735faabd1438c9U, 0xbcb0928fbbd132b9U, 0x3dd94c2c3c0c6ab5U, 0x3cc45b1ebe1bcb9fU,
  0x3d9df8d43c089e0bU, 0xbdfbb9c43beb7d08U, 0xbe2f288dbcfebef2U, 0xbda6af0cbdfd8bd3U,
  0xbdc01673be029248U, 0x3d0b2c2e3cb9a5b7U, 0xbc0bcfe63caf8967U, 0xbe6ced03bd8e6595U,
  0xbe612da5bdf3b82eU, 0xbd8a4f893d954771U, 0xbd2dfff83e3e2f3aU, 0xbdc56ed1bd7e6a87U,
  0x3d9671343cb96e11U, 0x3d5981ee3e34d660U, 0x3cd8e3c83e64a5e9U, 0x3da8a40d3d3c9878U,
  0xbe14f813bd6a9ba6U, 0x3e02388e3e1ae412U, 0x3dff8aa23d6ed0c0U, 0xbd13f2aabc977ad9U,
  0x3dec9b12bc1ba549U, 0x3d3ff746be41b29dU, 0xbd74ec25be357d30U, 0xbcc9fcf6be0f295eU,
  0x3abc02edbd1368ffU, 0x3db936253d3fa3c7U, 0x3d9e78f83d330170U, 0xbd89194e3dba2514U,
  0x3c32d3e4bce80abcU, 0x3d8230debcc601b6U, 0xbd32b2073ba42df6U, 0xbe6c92763df8d330U,
  0xbe390af1be4495e0U, 0x3e16d6ef3d8d9bfaU, 0x3e61944ebceaf1e7U, 0x3e304c213e259659U,
  0xbe207130bd6c6be8U, 0xbcfa8ae73d368104U, 0x3e3170663d9895c9U, 0x3d6e3e7f3d71adf0U,
  0x3db4a7373bb0b9a4U, 0x3da86f8f3e2c9a52U, 0x3cca80593e1d6158U, 0xbd2a4a03bd881750U,
  0x3c4b29b63dc22ccfU, 0x3d7ba36dbc7698dbU, 0xbdff0e37bd75c285U, 0xbd87ea283d8e80e5U,
  0xbcb438553c87540dU, 0x3dfc5ff73dcbb16fU, 0x3eb241113e6378d7U, 0x3e1bcc903e245871U,
  0x3d67b4243d9189baU, 0x3dbbbf3b3aebc777U, 0xbdc51ba8bd1132c9U, 0xbe45165fbe082622U,
  0x3dc86f47bd33ba5eU, 0xbdbd36093e48237dU, 0xbe037d8d3c85b013U, 0xbd6a2e8d3d2e737eU,
  0xbe2050bfbd814b85U, 0x3d6a507c3dad06e5U, 0x3e8792d8bd52781dU, 0x3c13c0b1bdd52f97U,
  0x3d2975e63d5c68adU, 0x3ac79fbbbe167e7cU, 0xbe55792b3d17081fU, 0xb9f7f5ebbbcf9e21U,
  0x3dabb976bd04bf0fU, 0xbdb719ec3e158409U, 0xbc82e8583dbd9a59U, 0xbd19c189bde07fc0U,
  0xbddca1f13d7d4a80U, 0x3cc9af79bccecbc7U, 0x3d14a156bd8c4390U, 0x3baeed233cfed17eU,
  0xb93aea643b806af0U, 0x3b10cc503d3b0a1dU, 0x3d853d453dba881dU, 0xbd9a1de13bcca3d3U,
  0x3b44da343d13834fU, 0x3d02f677bd848813U, 0xbc81dcd0bde4b1ebU, 0x3d239c393d95aff6U,
  0xbe1e3b833e034f9bU, 0xbc9de2fd3ca45149U, 0x3db8858dbc18cf2aU, 0xbc2e46d6bd438bbdU,
  0xbe59fc6ebe560b57U, 0xbdd4554e3d0fe245U, 0xbd3b8c1c3ccd4003U, 0xbd845bc2be06fa66U,
  0xbda901d5bd9c927bU, 0xbe9046bdbda28317U, 0xbe64052dbd840bf1U, 0xbc89d8cfbdec5c9aU,
  0x3d281aa23cd1e355U, 0xbcab2f7c3d8a851aU, 0xbdb80bacbdd84dccU, 0xbdb3aeccbe8411d5U,
  0xbc8120383d6039a7U, 0x3d2460463e051f14U, 0x3d8b64c73d422fb7U, 0x3d7a3282be1f8995U,
  0xbd078ef63d2f623eU, 0x3d38935ebe5f5696U, 0xbe048dc7bd8f9817U, 0xbcff53353c0dbe2fU,
  0x3da6956e3d1e92b3U, 0x3d512b973d93bc3aU, 0x3ca3d9643d8817f3U, 0x3d68036fbdeeaf26U,
  0xbdedff533daaffd2U, 0x3b6c0b463dbd3cd0U, 0xbd5272913d5378adU, 0x37fe7be0bdc0ca1eU,
  0xbe22da1c3c8abdcaU, 0xbe486f993a7f2fb5U, 0xbdb868073c4eb6d3U, 0xbe11e8aebd3fc183U,
  0x3d38ee443d9d13dfU, 0x3ca1a7f33ca6196dU, 0x3d5a47dabdd3fd94U, 0xbe321b63bcc57689U,
  0xbe13004cbd9804bdU, 0xbd6c97cebce111fcU, 0x3da3ab603e0d5db4U, 0x3dcef1b9bceeaf27U,
  0x3bd8dc653d1b2df5U, 0x3dd4f532bded01b3U, 0x3d60dc8ebe99e2c6U, 0x3d7a5b3b3d510d86U,
  0xbd7ec6423b024435U, 0x3dc2436fbdc472e7U, 0x3e1781a43d7d493cU, 0x3d85fecf3d9abcdeU,
  0xbd25f3c6bdc7f2f2U, 0x3e34529ebe701974U, 0x3e0122f9be5a79c3U, 0xbdf2c1c23d5eb384U,
  0xbd8fa13dbdad8df1U, 0xbc074caabdd5e01bU, 0x3cda23f3be968d81U, 0xbd71567fbd1b0b5eU,
  0xbe0013c83cb2d869U, 0x3cf02c3bbe3e31e3U, 0x3df763b4bd42f2e8U, 0xbd3bf6a03e01e8a6U,
  0x3b44397d3d8c699aU, 0x3d4505f53d106134U, 0x3e2986763deddf5cU, 0x3cef75633db79b15U,
  0xbd8a9c94bdb2fb4aU, 0xbc3ff19abe5f5b28U, 0xbd27718dbd75c3c7U, 0x3dbafff93db4ecc7U,
  0xbd773f6bbe20add7U, 0xbd82efcabc9e805fU, 0x3e50c5553dfccc95U, 0x3d56f56abd8e61e3U,
  0x3d935238bc6a9217U, 0x3dd6ad2cbe9036daU, 0x3dc787f9be3748beU, 0xbcce2f0d3dd99b26U,
  0xbd8bf18abc3eeb22U, 0xbd4217d2be5da8c6U, 0xbe4dcb71badfec82U, 0x3c766a78bd5fd480U,
  0xbe0c1b91bcc5d0f6U, 0x3cda076bbd586562U, 0x3e0ab6b7be6d7a8dU, 0x3dc9275d3def4af3U,
  0xbc665c85b954f200U, 0x3e1baace3d459217U, 0x3e1cd90e3d90c70cU, 0x3dcf45713daec5a6U,
  0x3c8b2bd43e52177bU, 0xbdd60987be0ddbcaU, 0x3d63c740be48f7dfU, 0x3e1a4369bd28cb00U,
  0x3d08a064bc2f7209U, 0xbcab0bbcbdf05427U, 0x3e9e134f3dedf4b5U, 0x3e06953d3df5a691U,
  0x3e49c0943cf71a7aU, 0x3c876e10bdd0b69bU, 0xbd416ef5bd56b591U, 0xbcdf85e1bdbf2528U,
  0x3cb3a62cbdb97e02U, 0x3ce09bf33cd8c85aU, 0xbd7c640c3d7d08ceU, 0xbd55ba513cfee2fdU,
  0x3debe7d4be157df4U, 0x3d19ac9c3ddb8353U, 0x3dce38f53c84b528U, 0xbde8ccb7bd92630aU,
  0x3e64a1e3bca90e94U, 0xbdabce63bba15657U, 0xbc874ee53d817a65U, 0x3d955326be9a8ca6U,
  0xbd84222fbdc34dbcU, 0xbe48a5ffbf12cd7fU, 0xbd05da53be7cdb33U, 0x3dc8eae3be80e19aU,
  0xbdc48baabe107170U, 0xbe370c4bbcbb7c15U, 0xbe7485bdbd500394U, 0xbdec0b63be250869U,
  0xbe3c4393bdaa2d2eU, 0xbd921ceebe16f8e4U, 0xbda154cabdcae917U, 0x3c90fcecbdaafb30U,
  0xbe2a652fbd1fc081U, 0x3d8a12b7bdf56f6eU, 0xbd532c4abd4614c3U, 0xbe2a109d3dab78dbU,
  0xbddfcecdbd0115fbU, 0xbe067147bc028573U, 0xbd8dda92bd49c1a3U, 0xbdc0f416be16c7c4U,
  0xbe8c64f73d8a1c53U, 0xbe6377b13a798b0cU, 0xbce5dffd3de158bfU, 0x3f14a54b3d95d755U,
  0xbdfd7ea13e30abf5U, 0xbcc7c581be735bf4U, 0x3e18f927be4bb70fU, 0x3e0cca153d0337f3U,
  0xbd8147a33e27db54U, 0x3c826962bc8bad4dU, 0x3c5f461f3cb122feU, 0x3c548c373da8a8a5U,
  0xbe57cbda3d971976U, 0x3d85ba3f3cf0e73bU, 0x3e3c6c2a3a0efe36U, 0x3cbb9c5d3c86d314U,
  0xbde6d8d83e197081U, 0xbd02cd02be3dc35bU, 0xbd40b28ebd0012ffU, 0x3da0f3703d6cebcaU,
  0xbb8acde93e18110fU, 0xbe0742e2be55867fU, 0xbe51622dbec0887cU, 0x3ca24fa1bc57d2daU,
  0x3db5cc093d569e82U, 0xbd001090bca4476fU, 0x3dc831953d8ea3d4U, 0x3ee00e003dad8790U,
  0xbbc942233e76c76aU, 0x3df6286abe6ed6e2U, 0x3e2ad0d9bea4e175U, 0x3e678cbc3d1eb3baU,
  0xbc47803a3da30be3U, 0x3e5251cabd87aa32U, 0x3da5b5073dd91de0U, 0x3d97bbe63d472046U,
  0xbd87ee843534b700U, 0x3e20d2e13dd8d20cU, 0x3da5f5af3df273fbU, 0x3da9d0c6b9c6c575U,
  0x3e16585c3e1dd99cU, 0x3db1fac1bdcaea67U, 0xbcb11bd4be011e1cU, 0x3d56c4ab3dbd5994U,
  0x3c29858cbd1d90beU, 0xbdbf6aa4bdf8d725U, 0xbd909729bda91c44U, 0xbdf61c35be28b04bU,
  0xbd7908383de5f958U, 0xbb0f29df3bb08ad1U, 0x3e2e13433d18d103U, 0x3ee710da3ea58a61U,
  0x3b1b7df53e5a5697U, 0xbca66851be14c1f1U, 0x3cd36638bd62dcddU, 0x3d039454bd111e22U,
  0x3e1d7f3a3e19b797U, 0x3dadf085bd287a8dU, 0x3df0aa783d8d340aU, 0x3dc3020cbb49b934U,
  0xbe16b3ad3db1752bU, 0x3e2ad9e7bd6fa119U, 0x3d832c8c3ddec3ccU, 0x3dd8b1d73d57f705U,
  0xbd8a5767bce18485U, 0xbd9c4da6bdb9b97fU, 0x3dc1d2fcbdc8da70U, 0x3def53b93db7b4b5U,
  0x3d95e5c53d4ee60dU, 0x3d3f1878be77864bU, 0xbe0b1f37bd374261U, 0x3d0f491a3dd2e145U,
  0xbe276aca3d7a4735U, 0x3da1618e3de4d785U, 0x3e7fbc913dd0c9b8U, 0x3ed91c483e20e1b3U,
  0xbd7b9c8d3dc634d9U, 0xbd9e2a89bdf8810eU, 0xbde0abeebe1c4330U, 0x3c40865bbe32e60aU,
  0x3dbbec3f3d6d3bc3U, 0xbce8298bbcc6208aU, 0xbdf857243cd1cc6bU, 0x3cf0bd793d4902c9U,
  0xbe006dcd3d835c92U, 0xbc948c843dbebb8bU, 0xbc56fd193b581ddbU, 0x3e0d659b3dd274bfU,
  0xbb94e4d73e03d278U, 0x3d1323b93e5723a0U, 0x3d0e2b533e216261U, 0x3e4bbffdbd95b765U,
  0x3e0a3c713ca8c0a4U, 0xbdeb0bcebbc6a9ccU, 0xbce32911bd157b11U, 0xbdbb64e53d09a658U,
  0xbd854ea23e25f690U, 0x3c8552ab3e1c3df4U, 0x3e7046163dcd0bd5U, 0x3ed8c83a3e62d456U,
  0xbd29f487bd1f23c4U, 0xbd99876cbe226a06U, 0xbe6e114bbe9e1f7dU, 0x3bb36432be2131daU,
  0x3c86dd64bd9e5248U, 0xbd4442d5bd59b0c7U, 0xbd29c97d3c8b9822U, 0xbdb9de36bd730edcU,
  0xbe052e113d5144f9U, 0xbdaabd2f3c0fdacbU, 0xbd4ca5883e00fcdbU, 0x3c7b81f73d741f0bU,
  0x3cce41693d204a43U, 0xbd75eae33e42fa61U, 0x3bcd97ad3e02425bU, 0x3d0d156dbc92fb4cU,
  0x3dea3e983d90fea3U, 0xbd8f96d8bdb64aa7U, 0xbe170b63bd66f1ceU, 0x3d788ed8bcbb679dU,
  0xbdd6380c3e3170c1U, 0x3cae46093dec4654U, 0x3e8a84dd3d93e358U, 0x3edd35e83ea9d3c4U,
  0xbeb32e4bbd184accU, 0xbc0a58e03e4ec03cU, 0xbcaf53aebd837c8dU, 0x3a356cfcbd84f0c1U,
  0xbe0b873dbe5b5a72U, 0x3e1ebb913e8f9676U, 0x3e5e92b63ea2c1b2U, 0x3e88a46c3d992ce9U,
  0x3e61df0dbd033588U, 0xbca0b1f33c1fc720U, 0xbbf9b63c3e100688U, 0x3ddf1da83da52361U,
  0x3e78a1bebdccdfffU, 0x3d25ed95bd6003f7U, 0x3dfef70abd2423abU, 0x3dbd38613e0bf7fdU,
  0xbcd84570be1a6de9U, 0x3d3e517e3dda5dbcU, 0x3dfe22c43d657bf4U, 0x3e8e85c53d81faa9U,
  0x3e5495a1bea5a101U, 0x3d95d6b73c253a44U, 0x3c65ad73bc027c5bU, 0xbf4c1df3bd181108U,
  0xbdff0da1bd8afab6U, 0xbc83ea743e039670U, 0x3e234fa63cada304U, 0x3d93f1ba3dd4cb90U,
  0xbe68ecb7be4c1cccU, 0x3d3cbb743e6e52b9U, 0x3dea37ef3eec2f05U, 0x3d2484d33ca8ae00U,
  0x3dcb8e81bddb4b4bU, 0x3d9174c23e1e553bU, 0x3cf1a5403dabfeadU, 0x3db238933e1874aaU,
  0xbe0c98a33d092b88U, 0xbcc8d196be06d31cU, 0x3e0a3ffdbdf7c720U, 0xbd93bb823e8580a9U,
  0x3da02702be2c1851U, 0x3e228001bd388f5fU, 0x3e780bf83c5a02eaU, 0x3e805e2a3e4c3864U,
  0xbc90b126bdfe98d8U, 0xbd48c7903bbc02c6U, 0x3d7f5060bd830bbeU, 0xbf2063c2be3cd846U,
  0xbde3d7ca3c840fd0U, 0x3c9baad8bd845743U, 0x3e40e5783de215afU, 0x3cd6654bbde1100dU,
  0xbea0f859bdb0f872U, 0x3d7124c23e889caaU, 0x3dd66cc93ec3b6dcU, 0x3e6e101e3de7260aU,
  0x3e00ea87be25f2a1U, 0xbd88c7df3c117337U, 0x3de7d12d3e94cf32U, 0x3ccad77e3df38f18U,
  0xbd70684bbc088a0fU, 0xbba52c4dbd97f64dU, 0x3e1cdda13d949428U, 0xbcc0db003b740032U,
  0xbaf6ad2ebcc9ee0dU, 0xbd5da33ebd91c19dU, 0x3d4566603cf0d52aU, 0x3d66c6193e2a186cU,
  0x3e2b9a613c8a2cb0U, 0xbdc7b1efbdab94cbU, 0xbd86e128bdc5a392U, 0xbee25782be3fc909U,
  0xbe6159b6be1c1fd2U, 0xbd0136f8bc394bb8U, 0x3dc9a6373dab0e0cU, 0x3e133f863d4a6164U,
  0xbe30389ebc1f58baU, 0xbd1a2b133ea723c4U, 0x3d7640413ea0dc76U, 0x3e40d8a43e44d933U,
  0xbb0eb8183d8a9d9aU, 0x3c8476333d9c9923U, 0x3cc798523e12b981U, 0xbd7cabc03e152f85U,
  0x3dbae16cbc80a046U, 0xbdd1cc303ccc6a86U, 0x3e3811163bf970baU, 0x3d5c7778bd562128U,
  0x3dbc12d1bddfa133U, 0xba729e97bde8f107U, 0x3e16f38ebc8a65cfU, 0x3dc5922c3da90bf6U,
  0x3e4a6752be6c5b6eU, 0xbb9c702abe0b5a80U, 0x3d00e963bdcefc64U, 0xbeab2bd5bd0a7c38U,
  0xbe7ce5a2bba105dcU, 0xbb5d41e9bd396116U, 0x3cf99fb53e480dbfU, 0xbd041b473ce2f911U,
  0xbe8050f6bdbdb0c4U, 0x3c2209883e8a3587U, 0x3e2ddbdf3e86128aU, 0x3dcaeb3fbcf279a0U,
  0x3d3f542ebdcf6f73U, 0xbe2ec7023dbd8df1U, 0xbcd89d603e169f4bU, 0x3e0486bc3bace8dcU,
  0xbd80ebf4bdd86f15U, 0xbe00f64cbe0e6093U, 0x3d70f1cabcd8b559U, 0xbde46c47bc836d0eU,
  0x3e078e613e179ee7U, 0xbda7515bbd3ab34dU, 0x3e2ec358bd9738deU, 0x3e0e4d533e0fe998U,
  0x3df09062be1949c8U, 0xbe538bfd3bac1cc0U, 0xbd69b17abc8e0c66U, 0xbe63d85bbe8d2e18U,
  0xbe8255b4bda3f789U, 0xbdf60890bd2e8553U, 0xbdcf0e4c3e13448dU, 0xbd74c4ed3d67608eU,
  0xbe498819bc8c1826U, 0xbd93cedc3e61e8b6U, 0xbc1c5c663e86d328U, 0x3e134330be12b5c4U,
  0xbdb2a514bd587eb8U, 0xbe3648303e51d4caU, 0xbe0a7f823e364e35U, 0xbd379856bd874143U,
  0xbd586e5e3d30f4ceU, 0xbe05ec82bd9f6deeU, 0x3e774e2f3d332573U, 0x3de01544be018b97U,
  0x3e0607253c685838U, 0xbe5763c5bea7560eU, 0xbc676fdcbe9af46bU, 0x3e4922ee3e15b623U,
  0x3df7ee0bbe0521d2U, 0xbe1739303d7fb747U, 0xbd3c49543beb3b40U, 0xbe89b108bd806cd6U,
  0x3c2f88443cd75284U, 0x3da96c84bd3346d0U, 0xbd41492cbdfde68dU, 0x3d1ccf2e3e042b24U,
  0xbd83b1163e1b435aU, 0x3e23ad7cbdc1b3e8U, 0x3e077bf8bd862825U, 0xbd2e2e14bcd26b35U,
  0x3d290a09bba520edU, 0xbd5bd64dbdd92901U, 0xbe1eb0acbcd5475eU, 0x3d8438bbbe0d6c3bU,
  0xbe1e02ebbda55b5eU, 0xbdeb65adbd687205U, 0xbcfde53f3e05cc85U, 0x3d867257bd19f8b3U,
  0x3d5eb17abdd77b7eU, 0xbe07afcdbe1d7b12U, 0xbcdfb524be7ba021U, 0xbd5832a7bcb0cba9U,
  0x3d47700cbe09183dU, 0x3d19250dbd025b54U, 0xbdca3cfcbc799368U, 0xbcc95b3ebd9050f6U,
  0x3d8b7922bcb18f2dU, 0x3d345b99be7eda65U, 0xbdf68ea4bec2ae0cU, 0x3ba9c7d9bdab273bU,
  0x3d2f0412bb8ed8acU, 0xbe04964bbd8f70f4U, 0x3c88d0633d147f69U, 0x3d3af25abdc522efU,
  0xbca2cbe6bd36fc5cU, 0xbe20ee7c3d93c8dcU, 0xbe33ec363ce69f2aU, 0x3cfba383bddd000eU,
  0xbe3a0fb13cff3657U, 0xbdd9720e3d372544U, 0x3ac52b7e3dd2156cU, 0xbd43fd8bbdde41fdU,
  0xbaccbd83bd814d26U, 0xbe602340bda53fadU, 0xbe2aab4bbdec35b5U, 0xbc98270fbe271fdeU,
  0x3d640017be138fa8U, 0xbddc61c83bba87cfU, 0x3bdd5c593c4a194aU, 0x3d8d1d37bde2b0faU,
  0x3d96c9493d66f8f8U, 0xbb1e6b13bec93867U, 0xbd676298bea3ee60U, 0xbdddac39bd05d9efU,
  0xbe0040303d6d7dd2U, 0x3e1be4093da9da4dU, 0x3dded4693dce4f1eU, 0xbca875873dfa957bU,
  0x3ccdaefdbd91bbd7U, 0x3d0bc4963d70db6cU, 0x3c7ebb823d420b26U, 0xbb91a766bd261ec6U,
  0xbdcf574d3d747ce3U, 0xbc90d18c3e0cc91bU, 0x3d3a08493de87187U, 0x3c851ee43c956396U,
  0x3d1261793db83681U, 0x3db19e25bdee8240U, 0xbe38dbb0bea948d9U, 0xbd0114af3b7dbabaU,
  0x3d28c2f5bcf0fef6U, 0xbda9e3f33db55f50U, 0x3dd916fc3d9db23bU, 0x3d180462bd4e6e87U,
  0xbcea0e023d3f2c7dU, 0x3e089ce0bea15cdeU, 0x3d340642beb7a32fU, 0xbde8c26fbcb6d4c1U,
  0xbe1162e1bdde8fc8U, 0x3d1552843dba4445U, 0x3e570bef3dfbfd99U, 0x3da21ca63e1bb031U,
  0xba6aed7c3d9be0bdU, 0xbd9e3c4f3d8e2f3dU, 0xbd2a592e3c0525baU, 0x3d878ac43d4198e1U,
  0xbd97ee47bdc9ec7dU, 0x3cb30b703e29581bU, 0x3bf7f2babce28d18U, 0x3dc3d270bc1c01a0U,
  0x3ceeb5963a9c52d3U, 0x3d92b57dbea9619bU, 0x3d5109e4be190bc0U, 0xbe44fadcbd013bb1U,
  0x3cc960b93d996c08U, 0xbbaab8323d03ed37U, 0x3e0d1b133a34f81fU, 0x3e35f84639c0e615U,
  0x3d414c7e3cfd18b6U, 0xbbe4916dbeb70fe5U, 0xbd0b28debe7b3c58U, 0xbdb07fbfbd560a6fU,
  0xbde5855abda50a54U, 0x3d158fb2be1d4c2aU, 0x3e4bdd29bd48a222U, 0x3de8dd3b3ce5b514U,
  0x3da7193f3dd6bfadU, 0x3d12b747bdd63d48U, 0x3c32b768bb61dd1cU, 0xbd8520cdbe3f2561U,
  0xbe945f60bda0df9dU, 0xbe206ddf3e12675aU, 0xbca0b5913e179fa9U, 0x3d7f4abc3d930d11U,
  0xbbce0776bbefe0b8U, 0xbd8c9cefbe56e760U, 0xbd4c3d01beb62e1eU, 0xbdb09c80be2c427eU,
  0xbdc497cebdb0d966U, 0xbd46c934bd054d82U, 0x3d8746f23bb7e420U, 0x3dd0cc48bd3f995eU,
  0x3de2eec2bd3d77c7U, 0x3d0114d4bed417f9U, 0xbe20cd15beabe7f1U, 0x3c5a0f353ce93741U,
  0xbd3323f53d2fd8e2U, 0xbda50d8fbe0c74bdU, 0x3e787cabbdad973dU, 0x3d92b7063dcd855bU,
  0x3e5dcc4abd86f2b3U, 0xbda6e505bce3ffbfU, 0xbd6cc34abd7c07a3U, 0xbdc1c8593cf471d2U,
  0xbe290e3bbd8b4330U, 0xbdc6c5393e248842U, 0x3e24c0e63dc9dbe4U, 0x3cb92f32bd7f86e4U,
  0x3e0375b0be20874aU, 0xbe9c4460be8cddfdU, 0xbdecd85abed7c595U, 0xbea06510becc2684U,
  0xba2c1e09be34aa88U, 0xbe8d1cb63d60975cU, 0xbd027eeb3d9b427eU, 0xbd24165bbec6838bU,
  0xbe3401aabdb7c93aU, 0xbea56c51be33974aU, 0x3e1d016dbdeec4a0U, 0x3daeb2c5be734e8fU,
  0xbe225a8cbd028d9fU, 0xbec2967d3d3590feU, 0xbeacff2ebca67718U, 0xbe800c0fbef4bf68U,
  0x3d77b2fbbe11c64dU, 0xbe1dab3a3bf42f5aU, 0xbe2ab680be2c8d06U, 0xbe057fe2be84c179U,
  0xbdb66c35be8a7bb5U, 0xbe8d53f7be0f8b15U, 0xbf0c53cfbeb2f2d6U, 0xbeaa7559be895839U,
  0xbd983207bebc3d23U, 0xbeaeb5a63e1221e2U, 0xbf02f52b3ecfc8a0U, 0xbeb5ebdabec8d605U,
  0xbe2edfb8be888effU, 0xbf29a0f93d1a3846U, 0xbe0a4fa53cf7b224U, 0x3dea60bebdbad8c0U,
  0xbe1ca773bdb3cf18U, 0x3d30701a3dd2a415U, 0x3e1f8373bc9716d2U, 0x3dbdd0eebe083ebfU,
  0xbe9fb68ebea35399U, 0xbe811f9ebe475177U, 0xbe7b9a85be166115U, 0xbe6211c2bed80451U,
  0x3e1c9616bdb83a3cU, 0xbe0b1f8bbd0cf141U, 0xbe90ac38be26064aU, 0xbe1bfe0bbe8a20a3U,
  0x3e0c4475be9de1f2U, 0xbcf75661bdc204b2U, 0xbdc83088be17825cU, 0xbe1dc5efbda1dd02U,
  0x3dca99c8be4b79c0U, 0xbd4c85e73d39af4dU, 0xbe079524bebd7733U, 0xbe869509bdfdc331U,
  0xbd0e5729be970cc0U, 0xbd508ee73dfb175eU, 0xbd9e0b56bb8b35b2U, 0xbd35e158be969cadU,
  0xbcc394d23dfa36d6U, 0x3d2d47bc3e132414U, 0xbbbbbc9abe6a802eU, 0x3d49b962bde49b17U,
  0x3d2d0728bdb7adf4U, 0x3d317e76bd5a812dU, 0xbe0a8a63bcd478ceU, 0xbd2681bebd979781U,
  0xbe0854f1be076ae0U, 0xbcf05698be24f349U, 0xbd1fd30a3d5535e4U, 0x3d02095e3d51e200U,
  0xbe0c3410be1cbd6dU, 0x3e0f12acbdb26b14U, 0xbdbba9adbe44ac3aU, 0xbc326b643cee022eU,
  0x3e3f8688be376785U, 0x3dee4157be3c4d74U, 0xbe523623be56527cU, 0xbe2088d03d17ef4cU,
  0x3aef38b7bcc4390bU, 0x3d5e82bb3d91d208U, 0xbd3ffadcbda69ee3U, 0xbcb955f5be32d27bU,
  0x3df0cbaa3e549d02U, 0x3dd14accbe034c41U, 0x3e2188a23c5a0adaU, 0x3dbf03883da7866cU,
  0x3e285c873e22ef2cU, 0x3e17afe13ddc77f3U, 0xbcfeee2b3c358f8eU, 0xbd4d27b83de5e993U,
  0xbe9e11143da71885U, 0x3e01ce3b3e654de0U, 0x3de4ada73dc00b8dU, 0x3bcb0b163e20780fU,
  0x3cead002bc884777U, 0x3e4760f0bc98fbc5U, 0x3d8f6b6b3d9f3588U, 0x380178823c964e5fU,
  0x3e2dccc33de3be05U, 0xbc92d7eebe0e1c1bU, 0xbd5e0959be71bffeU, 0xbe598ab5bde08771U,
  0x3e2600243ce97197U, 0xbd8d3ca4bc448226U, 0xbdc05ad3bd7847d9U, 0xbcdf279abe584426U,
  0x3e518c72bd045722U, 0x3d9488e73e118ac1U, 0xbdd6211d3e00c7a4U, 0x3c7ad163bc36321bU,
  0x3e34c3aebd1bc3fbU, 0x3d8607e73dbfa3ffU, 0xbcde06c33ce22390U, 0xbcb3a7c8bdbad2a2U,
  0xbe8bc7453d663eceU, 0x3e8439d63e5798a6U, 0x3e263b853de6a87fU, 0x3dc764a3bc921345U,
  0x3bec82d3bdd128f0U, 0x3e1a866c3e32a0fdU, 0x3d8ebc4b3da91bf6U, 0xbd5d97403e1b4a84U,
  0x3dca67053db6aa70U, 0x3db806b1be32801aU, 0xbc159d1dbd832370U, 0x3c732965bd5dec67U,
  0xbd0e05173da1de26U, 0x3e60af3b3c7f15d3U, 0x3cf840dd3bee4251U, 0x3dce137c3e86b92fU,
  0x3c3948193d8f8e7aU, 0x3e55d0003d492246U, 0xbdc6d0783cf59e9dU, 0xbd1fe84d3d8e5217U,
  0x3d94f9623da2a7a5U, 0xbd6eb8213e3d505cU, 0xbe5eed463d9270d8U, 0xbcdaa68dbc970836U,
  0xbec6d13f3d81d1c5U, 0x3e5571b43e6086b7U, 0x3e0e12243e6af39dU, 0x3e3383ff3d4f4e09U,
  0x3c23d1553d1d75e3U, 0x3db308a03de9c333U, 0x3cac084f3e121476U, 0x3d83b965bc398820U,
  0x3dcfe5743cab5b38U, 0x3d08e180bd266bbeU, 0x3c0c907c3e56d1f8U, 0x3c82e7873d498b3fU,
  0xbe1213a03d329f12U, 0x3e9fd8213ced5bb8U, 0x3e84c2903d85e53cU, 0x3d7208003f04b6e4U,
  0xbdd55ac7bd7dac19U, 0xbcc5fcfabed26f97U, 0xbc88a750bebd5e2eU, 0xbe23783cbe2bc6e5U,
  0xbca0eae7bc94961aU, 0x3ae6af44bd9a62b4U, 0xbdd55d0cbe1ed9b9U, 0xbd1b8654bdccfac0U,
  0xbdd02520bdef5a88U, 0x3d405193be09ffa1U, 0x3bd64d06391ca76cU, 0xbdb6dff73bbcc115U,
  0x3d4fcbdb3c52984bU, 0x3d19d47fbe3b0068U, 0x3dae04d43e6809d8U, 0x3d41de373dace820U,
  0x3da159113e538b79U, 0x3dc9e94abe2bbf7cU, 0xbe18c6ff3e198e9eU, 0xbc75d6f4bdb50d5aU,
  0x3cc090773dd2a5eaU, 0xbe057aed3dd6a8a2U, 0xbdcbe0813d871b03U, 0x3eb699e1bcc8bacaU,
  0x3dd0acc13e85219aU, 0xbd04353cbe2d4018U, 0x3e342689be5a98caU, 0xbd4448b83dac3693U,
  0x3e54c7df3e26fe4fU, 0x3d9a3f57bd9d5782U, 0xbb211020bde457d9U, 0x3da3d4b63dc4cb7aU,
  0xbe1af9643d30f420U, 0x3d9b1576bd8ca9f6U, 0x3e16a055bd80080aU, 0x3cd5946e3d74bf1aU,
  0xbd4de36a3c81bba1U, 0x3db7687f3e043724U, 0xbc9b73dbbd45d0abU, 0xbd0972e33e20bc27U,
  0x3d2781483e4aca47U, 0x3e1aeedbbdd0c48cU, 0xbd9a46b2bdcaa2d2U, 0xbcc40fd43cb8ee6eU,
  0xbd7e3c5c3e59c020U, 0xbd94eab93de0206fU, 0x3d9be7d1bbea4152U, 0x3ebc57a23e9236d6U,
  0x3dbde45e3e5be308U, 0x3cbc78b6be2bd4f6U, 0x3dd32b4ebe5dfafaU, 0xbd5ca90a3d84fca1U,
  0x3deb77ad3e3eede2U, 0x3e5de4edbd82d900U, 0x3de694f9bd7a45f7U, 0x3d2dfa8c3e15668cU,
  0xbd0a8e523da097d6U, 0x3d223653bc8ee9c5U, 0x3e491b113e365d33U, 0x3def93003d40d151U,
  0x3d9074643da68b92U, 0xbe0f97f83dd5282fU, 0x3cac9d9a3d3635c2U, 0x3ca3aae2bca40f19U,
  0x3d2c742c3d98c8f6U, 0xbd93455b3d75e23cU, 0xbe30f433bd8170f9U, 0x3d621a1a3cce5e8fU,
  0xbda8d2f63e22f206U, 0x3cd409ce3d0017bbU, 0x3e63a14f3dcf6cccU, 0x3e4cfcf63e53ce9eU,
  0x3d514674bab551ddU, 0xbdfb0516bd7e275fU, 0xbd2a93163d30d133U, 0x3de06282bd1e59e0U,
  0x3e248f9e3e31df30U, 0x3c8caa1e3d1fb89cU, 0x3e0afb43bda3cd37U, 0x3d4051003dc82fb8U,
  0x3e09fde13d0447d1U, 0xbc76fea63d04d60dU, 0xbcd27bbc3c764ab8U, 0x3d73a065bd72331aU,
  0xbdfc82483cf3ef0aU, 0xbd2a64d73e0c0828U, 0x3d9a09ef3d2336f9U, 0x3d7d39bfbc64eefbU,
  0xbdc2e17a3dd0962aU, 0x3dfc97dfbd89cb94U, 0xbe1475e9be011ecbU, 0x3d5161f5bd2a95c1U,
  0x3d83db5b3e13bc09U, 0x3d96703e3d4d06a0U, 0x3db0aebc3cb471e5U, 0x3e922eec3e5a30c8U,
  0xbdeee283bd5f0a33U, 0x3d3093bc3c4dddbbU, 0xbe660488bde3dfc2U, 0xbda0f06ebbc49ca2U,
  0x3d3f34a23d9e29f9U, 0xbc5ad2acbd685293U, 0xbcac68623c998c56U, 0xbd3e78c3bd55966eU,
  0x3af3a9973c55ee4eU, 0xbd8d3c403d34a85cU, 0x3c790e98be1b696aU, 0x3c0b0de6bc4deaf3U,
  0xbdf756763d66cc4aU, 0x3d9f969b3e100e8aU, 0xbc50180c3ce83faaU, 0x3d95c5663c77ed71U,
  0xbe05a46fbc973639U, 0xbdaa31debc79e248U, 0xbddf56c6bdd5a567U, 0x3dfafbed3bb7ad9aU,
  0xbdb003b83dddccb0U, 0x3dfbe5383db09d6fU, 0x3d8e20453d3d6c11U, 0x3e3be1363ea2f313U,
  0xbeb2284cbdabaacbU, 0xbe4188f1be01a99aU, 0xbdaa83afbd8a72faU, 0xbe0c91d6be1987bfU,
  0x3dd5a1233d006d5eU, 0xbe6a90c1be13b33bU, 0xbe866704bc18d43eU, 0xbe2308d5be9acd00U,
  0xbd2921ddbe02ba93U, 0xbe4b7aaabd9a0320U, 0x3d523c92be6fcde5U, 0xbe30c8d43d075bcdU,
  0xbd05b020be5f45dbU, 0xbe7c76b73df733c9U, 0xbe6d306d3dbf99dbU, 0x3db8f356bd9e1e62U,
  0xbe392286bd6fa4dbU, 0xbe0e1d403e05fedaU, 0xbdc0bd7b3cda5986U, 0xbd108c79bd4cc9e1U,
  0xbddf22c5bc51bcc5U, 0xb9d1b9193d668b8fU, 0x3e5dfef43db9de2eU, 0x3ec19ed23e5fdee3U,
  0x3cbc87553d2943b1U, 0xbd554ba6bdecd816U, 0x3cad70b9bdc9304eU, 0xbd00d5b4bca6af94U,
  0xbe73fadf3d607853U, 0x3d36ff2d3e1172d5U, 0xbd4593aa39870b42U, 0x3cd1e324bce58b6cU,
  0xbeedb1bdbda597baU, 0x3c19e1143c9f9c8fU, 0x3d8822fd3da49e7cU, 0x3dae67a83db322d7U,
  0xbdbba4743d989f52U, 0x3bbef6163cca1572U, 0xbd928b98bd2048dfU, 0x3dd6976f3d57f1d0U,
  0x3de3d2ea3c9dc55aU, 0xbdff0710bd76f170U, 0xbe332212bdbb1f80U, 0xbdc79dabbde2e124U,
  0xbdc3fff9bcea5dd2U, 0xbd5cafcbbd912b95U, 0xbd79d2c33d815711U, 0xbd31eacc3c185df6U,
  0x3dcb5741bdcc6421U, 0x3dde68c63e2a5261U, 0x3d67d9f23ca05a1eU, 0x3b78abdfbdaad864U,
  0x3d809ecbbd320ba4U, 0x3c9bb0853daf9a3fU, 0xbe136c783d9d9452U, 0xbc6385dfbe04ae1aU,
  0xbea4254f3df7048bU, 0xbd57c7923dd75726U, 0xbd2338f23d1c4ae5U, 0x3d8430bb3d4263c7U,
  0xbd8bc1a73cb634aaU, 0x3e095892bd4cc7d9U, 0xbd98d0ea3dc34698U, 0x3db33bcf3e30038bU,
  0x3c11718a3d621c53U, 0x3dff09b7be88a442U, 0xbd48ec98bdd45d69U, 0x3da25d743d34708aU,
  0x3dcb44e8bd6aa8a0U, 0x3d4d44653da6d0ddU, 0x3dd2578d3d33fbd7U, 0x3e13f00fbd1954f1U,
  0xbd337f76bdb6d084U, 0x3c6220613dc60971U, 0x3dc2df8cbdb64affU, 0x3d747665bd9af905U,
  0xbd42a2323d383a7aU, 0xbd4a113b3e300321U, 0xbdb7aa8f3e291f8aU, 0x3d8cc9403d29bea1U,
  0xbe468a4e3e026552U, 0x3d047838bd790684U, 0x3bf9ac393e09a81fU, 0x3d351653bc89f9b5U,
  0xbcd2f5393e0e4d07U, 0x3e4ea02b3e0042eaU, 0x3df4ffbfbbe1f183U, 0xbcabded43e1edb0aU,
  0xbbcfb3353da28e2eU, 0xbd52314ebda6789eU, 0xbd2733983e17a10bU, 0x3d9e20a53de6980bU,
  0x3d9a432b3e2c78d2U, 0x3cfca0563e037f08U, 0x3e154e513d8b27caU, 0x3de3dcc23e50f568U,
  0xbd1ddc44be04ebf9U, 0xbdc4d3473e31e892U, 0x3d9f57c13dc7854aU, 0xbc850ae4bda262cfU,
  0x3d20b10dbd9b9890U, 0xbd3666633d7e34caU, 0xbd1a4e033de30d3fU, 0xbcdfbbc33c9b9a18U,
  0xbe861775bd569098U, 0x3dd1e0b6bcd376faU, 0xbd58cb6c3d7841d9U, 0x3d0979aa3d872351U,
  0xbdc03a4dbd22f6e1U, 0x3d493efebd49bfadU, 0xbdacaf1bbded35c3U, 0x3cd296a33dbd6678U,
  0x3d8c08b93c877099U, 0xbd6bb5143de6af4bU, 0x3aa6077c3df36446U, 0xbcca5b5a3cda9130U,
  0xbdb9a4003d1f94dcU, 0x3e16471a3e0fb4baU, 0x3e02d6693da33457U, 0x3e2b2a083e2d8a9fU,
  0xbe2b9bf8bdabb32dU, 0xbe0f6a18bc982c9eU, 0xbe02f9423e464f94U, 0xbd7fe557bdaa16deU,
  0xbe566a1dbe03cd29U, 0xbe76de113e091f60U, 0xbe1dca843b559aa1U, 0x3cb51887bdd8bf80U,
  0xbe33ae65bd8b7753U, 0x3bbc14533e3181bfU, 0xbdfc27dd3e54b133U, 0xbd1bb114bd4126e2U,
  0x3d73e1fbbe04e76aU, 0x3d8f0fbe3dd92ec1U, 0xbd4808a8bd6f2548U, 0xbe1029bdbdfe9ec1U,
  0xbd85cff53c6536d6U, 0xbda91bfbbd665694U, 0x3c48b7523e2b66ebU, 0x3dc17ffd3d8d1626U,
  0xbe90faca3d35e93bU, 0x3d0ee2af3e1b54b7U, 0x3ca088013e0f9c00U, 0x3e07c5173e232afbU,
  0xba92cc3fbe442354U, 0xbe3d248b3d998622U, 0xbe27e4583dc97e7fU, 0xbda273ccbe4c9388U,
  0xbe47321fbe16ce5aU, 0xbe8f5810bdf0095bU, 0xbe335b4a3bcb17feU, 0xbd92457ebe026e8fU,
  0xbe7a4405bd7304f0U, 0xbe36945abd08a033U, 0xbdfe493b3df3d529U, 0xbdee95f8bd5b568eU,
  0x3db88c14be73a08aU, 0xbbb52d5b3e01ac3bU, 0xbde210243d6e6d11U, 0xbe819427be0a5e65U,
  0xbdc9c2a1bcd43569U, 0x3ba4cfb03d295ab7U, 0xbdbb1e283e6ebb93U, 0x3dcd180f3e0ba55fU,
  0xbd8febd43dfc6f50U, 0x39bb50233dc63d29U, 0xbd11ecef3da08935U, 0x3db61ebc3e53b810U,
  0xbc65b27abd9377eaU, 0xbe151e7d3c977edaU, 0xbdae320ebdc555c3U, 0xbd350b733d865630U,
  0xbe92beb6bba8263bU, 0xbd3209ed3dd115deU, 0xbbc4c8c03da8c31aU, 0x3c0b784cbd19855eU,
  0xbe8a65ccbbcc14baU, 0xbde3fa2fbe0530d2U, 0x3c4e646bbddd8aa4U, 0x3c5878903d0d96f0U,
  0xbe879bd6bccaaa2dU, 0xbb88096c3e7d0cc9U, 0x3d0ee5773e43d827U, 0xbbde6e58bd9f13a2U,
  0xbdeb6444bdb98f5fU, 0xbd70ce653e2ce3e0U, 0x3d9328ad3e0fbc66U, 0x3c8e40d0bc58f51fU,
  0xbe213089bda9447aU, 0xbd898ebe3b5b0bc1U, 0xbd1cf5733d8cf413U, 0x3dd955023d4563fdU,
  0xbdec468dbd563ab5U, 0x3e0d1574bd89cc53U, 0x3d87c0443d763083U, 0xbdc1b94b3c5ed10aU,
  0xbe285a1fbd5c2702U, 0x3d18c5233d777411U, 0x3cea18523e04f699U, 0x3e3fb0bf3de8bfa8U,
  0xbe6267b93d688cbdU, 0x3e25220fbdf822acU, 0x3e32a882bcc161e7U, 0xbd51bea9bcfeaef3U,
  0xbc9ce02f3aa4dffdU, 0x3d302fcabe9218d3U, 0xbe09d348bdcc12dfU, 0xb97726e63d6f0252U,
  0x3c8e912cbc907fd5U, 0x3de4b7b0bc5332b4U, 0xbe11ab0bbd169ccbU, 0xbd749daa3d9108d1U,
  0xbe641bb33d9a96b6U, 0x3defb2bdbc40405aU, 0xbd9f2ababd85570fU, 0x3e1909d43e0bc7e1U,
  0xbd6b180c3e04fd4eU, 0x3ded0fa4bde3bf99U, 0x3e53abd7bda9c8e8U, 0x3e21156dbbc27ad6U,
  0xbe6bfb07bc9568a9U, 0x3ddcbb4b3d6551e8U, 0x3dcf540c3d9e7118U, 0x3e16e3153dfa925dU,
  0x3d642a263c94d3a6U, 0xbce1bacb3d325dd1U, 0xbcf572d8bc5fb996U, 0x3d96bb9d3d2e1c2fU,
  0x3ca583c73dd22e5dU, 0x3d6834b0be941a20U, 0x3e0c36cdbe225e89U, 0x3d92bf4ebd32bf60U,
  0xbd54824a3afa48baU, 0xbba2e367bdcb44d1U, 0x3cee18703d98302bU, 0x3e032fb33d458cceU,
  0x3cb225d43e4b69a9U, 0x3dc6142ebcc6d448U, 0x3da8c4ccbc468448U, 0x3c923bf33d710d1dU,
  0x3de0251b3db84578U, 0xbb8af5cdbea6e686U, 0xbc1efc96be08895dU, 0x3cf392013d508614U,
  0x3e0787323e0414bbU, 0x3d881f9cbe19e95eU, 0xbc4bcfe8bdc2f5d3U, 0xbd8d109f3d88c9fcU,
  0x3e76d6db3dddffe3U, 0xbd0da622bca02239U, 0xbd860208bd5c7a41U, 0x3dce3ae73de7e0f3U,
  0xbe1bdb86bd72f2d9U, 0xbc94f14bbd555f20U, 0x3db25f1bbdddb5f0U, 0xbd2c342d3c9adb12U,
  0xbc6131e03d91167eU, 0xbcc986293d84333fU, 0xbdae20b63cd5fadaU, 0x3d7d41793a37ea4eU,
  0x3bd636debb881624U, 0x3cfd42053cb8e95cU, 0x3d44e83b3d69d115U, 0xbd0d08d6bd74063cU,
  0x3de845f23d9fc9e1U, 0xbe008644bd72ffd9U, 0x3e0e0167be1e2c76U, 0x3d46c4e2bb0246a3U,
  0x3d9596cb3dddd4e3U, 0x3ca93550be19e987U, 0x3bbce795bdc6a8dfU, 0xbd15333f3c317b62U,
  0x3e83e2853d259985U, 0x3dd19aebbe279c49U, 0x3db7087cbdd4dc0eU, 0x3e0bd3083cf50c6bU,
  0xbd689c1ebd93e1cfU, 0x3ce51c4abd48ea24U, 0xbd3f5ed8bc2e255eU, 0xbd2faf423dabe179U,
  0x3db4188c3dcf5847U, 0x3e02aed9bdcd6449U, 0x3d050f26bdbf02deU, 0xbdc9d4963df3e7f2U,
  0xbcc464dd3d8ac726U, 0xbd1b33bf3d1a8981U, 0x3d57b007bc1cc984U, 0xba67e0e4bdc18e63U,
  0x3d464f23bda2901aU, 0x3dc3d30ebe9b3fedU, 0xba4f9812be79252bU, 0xbd378f233c6c0c22U,
  0x3db08f7c3c95df0bU, 0x3d7527b6bd7a4996U, 0x3d9ce6c6bdf63fecU, 0x3d9be1ab3e11dddcU,
  0x3ddd16543d3fa658U, 0xbdf76b8abce5d7efU, 0xbb9ab1ea3d2472a1U, 0x3d87532ebe3df303U,
  0xbc188132bda29200U, 0xbdcedc473e30150eU, 0x3d06ffa33de53a70U, 0xbe0c6e95bc97197dU,
  0x3e27f5643c045f81U, 0xbd3ebcaebdfc82e9U, 0x3dbc3722be192effU, 0x3c4c6e6bbe374388U,
  0x3e3c07f93d6afda1U, 0xbe89d68fbc819497U, 0x3c1c8b7ebd491bb9U, 0x3c7f1bb5be96896cU,
  0x3c789727bde85abcU, 0xbd5ad6a73e12c40dU, 0xbd342c01bc8bbb52U, 0xbde2b0513dcd653aU,
  0xbd014dd3bd2ad2dfU, 0x3bb10392bd068cc9U, 0x3e6e8c76bd982de9U, 0x3e38daec3d221b13U,
  0x3e8705953dc3eae2U, 0xbdeda59abe801401U, 0xbdca267bbe96c1fcU, 0xbca4cc4d3b6d4de9U,
  0xbbe8054fbe03bfa6U, 0xbde7be4dbe3aba1dU, 0xbd92c85abdfb4379U, 0x3cda5c48bdc8b3aaU,
